0400C
09A96
034BF
F15C6
19D03
F73B9
EBACF
F55AD
02392
12BA6
E84BA
071E2
201FB
F6B5E
EAE2A
097F1
1FE40
FD0ED
E43FC
F4AAC
0C660
EAE8C
F3C3A
FE499
1256F
09680
0CEF3
EB708
E35F6
0F339
F4976
FD09A
0228A
0278D
FB6A1
12127
020F4
F3F36
0A812
01ADB
004EC
E9D90
EEC79
F8CE0
2FFF0
079F5
F7752
0A5BF
0743F
FAD41
F40F8
F989A
F45EF
1400B
02F2F
F3AD9
0A05A
FDA31
FDEB9
0810B
FFA90
FB307
E8457
2840B
FE342
DE8D3
029A8
050F0
04333
01976
FD457
F6A7A
EA4AB
F6352
F5B82
F4562
F4423
EBA94
F4CA6
0834B
FD24B
07F4A
07CDA
EAFFA
14A52
FC971
F018E
F8D3A
007BA
07C5B
F39AA
021E9
147D4
F9C36
EEA57
13D69
0E9D6
0B378
F1C88
FD04D
0E81B
EEA9E
F8824
07934
0D09C
06175
16A8D
E517D
EC70D
217CF
F605B
F366B
0DFC9
02341
03940
193E7
04890
EA972
0A290
0216D
05865
FA5B2
F481B
08839
39FBE
0240B
0033E
04706
FAE18
05B72
FF02D
09F73
F3BC9
18B1A
F366A
09F42
FA552
060BB
07CB9
FED9F
F6305
FC8B5
F946A
1DFC7
FD8CF
E80A8
060AE
04C31
00AF9
FDCC6
06237
08806
E7484
FDD91
069DA
038A3
F5FC9
F31B0
04EB8
01A79
FA8DD
FB622
02471
03869
189F3
06D4E
FF53B
F5074
0AF8E
0E41D
F862C
FA99C
11024
F86CB
0076F
FFB80
10EC1
0162D
EC4EB
00F2B
08CE4
E9237
FA4F8
0B4FF
0BFAD
F34D9
0EC14
EBA5A
F8F43
23498
0682C
08238
0ECD5
0AA0C
FD9BE
0BDB1
FDEC3
EF653
FBB61
F5BB8
04CF3
FB26C
F785B
045F4
27EC6
03D66
FA3D2
0AEAE
FE9C3
06A9F
030ED
04AD8
F7D9A
13CFD
F8413
01B6A
05C80
F913C
080D0
04572
FE672
F1AFD
FF76A
1C320
FA6E7
EE993
F5F1B
FE91F
0B1AE
0B878
ECC2F
06E43
DC821
FBF2D
F628F
F5471
FBD71
F74BC
F9E6D
FF7AA
F3AD2
112A0
04F7B
0782C
1B92B
04DCD
05E6A
FD8EF
0B503
04DB2
05B4E
0870F
0A4E0
F8BD6
F0BD7
FF717
0D07A
05A15
FF5F6
FA304
07375
E9C8A
F5A15
08FC3
FBFCD
EB99B
FA274
F241E
EE877
1B59F
FCD1A
04141
037F1
F7671
FD913
07D7F
05E9E
F63EF
05D82
F8FE0
0A971
04E54
E8A9F
009B0
1B47C
03CD8
F7A63
FE78F
F3546
FCC05
04D09
04F25
FD3D6
0F281
FE130
005BB
02DF4
0B69F
0C2C9
FF81C
FB9AC
EC57B
F2C5B
13DE8
FE507
03790
F5EA0
009AE
0A8EC
1825F
F31C9
0B2C0
E065B
F4372
F4526
04555
02E19
F3E47
09491
0E15B
FC23F
13A4C
0E533
00F3F
1E27B
F7ED3
156F4
FD790
F5D89
0517A
FB09B
FBE6E
0E023
FE255
0B38A
EAAA2
00D8D
FD7A1
F8275
06FBF
0FB99
FCD59
F63C2
F9E1C
F2ECE
EDE17
03EAA
F0B48
F7653
14ACD
042DB
F96F2
0F7F8
06E31
FDD75
0C786
F574C
EDE45
05373
EF7F1
F81C9
0BE26
02991
FE1C0
F920D
FBEA3
05A05
0B416
050B9
FD66E
FEA55
F68C0
089F3
07307
027D7
F9ABF
01D37
05F7E
041E3
F6257
F6DFA
E97D0
F3819
FE62C
020F2
FC7C5
F3071
F3892
08480
17F0F
E425E
04B78
E6580
F8FBD
FEC63
07066
0352F
EEFEB
08B21
01994
FA63C
0F5D1
FC6BB
15776
0B9A9
FDFB9
0255F
F8E71
F85CC
002C4
1185E
06EC7
0796C
FD668
146B6
F4FBE
EF56A
F441D
FFBA3
07904
1A642
FC91E
FE828
F3D67
FE96D
F8F89
07CD1
F843E
07535
F95ED
07DE7
03FA5
0C750
F692E
023DA
1373D
F5752
008F3
F4438
F0308
FBF3C
0C64D
FD69B
020E2
F6126
03A02
F4E4D
FACF2
0073B
09F97
F72AD
0524B
F3763
04104
FFAC8
F98C6
07561
F74F4
0401F
FBE3F
00252
F3530
060AD
FF7BA
F4A16
112F5
F9068
FAC9F
FCADA
1B1F6
F8CEE
02F88
F5083
03B3A
FF42B
069A7
FF353
F384A
069C1
F6066
F5DEA
1A8EE
03636
09D06
03F27
0454F
00BBF
0ABF8
0BA5F
050E0
05400
F647A
0A5E8
02192
033A7
F53EE
EC123
F50F1
0BED0
F5497
0D980
0D156
07433
F6F41
F9C7B
E8FD9
041A3
F1771
07D2E
FB622
01E02
01543
00D0C
0371B
01512
12254
FC71F
F4AEB
FF5B4
F9495
0525F
13436
07ABF
F6086
EDA00
022B0
F9F7A
02FF3
FD180
FC47A
F5D3E
05989
03151
FF3BA
06C3B
FD33D
0258D
01F09
0A6C6
F463B
0ACE5
EDADC
FFC2C
FD82C
FD1A7
02182
F73A3
F34DF
0803D
1721D
F9CAE
02A5D
FCE1B
FD3CE
F793D
FB8A6
0BA21
FFE78
09B0C
00FA8
01E15
0D83E
0D59E
00A68
0AB6C
FFC92
085A2
F6D95
F95C7
04C9B
FD7D8
0772C
0B25A
F7A9C
158B9
F9175
F6EB7
FD057
005C5
FF2FC
0D6B5
FB505
056B0
01C3A
FA370
EFF78
014E1
FF097
0489A
0EAB2
F8B20
03E31
07309
FFA0B
F3D13
0E256
092F1
08966
F3851
F7258
014F5
04CCF
F7D13
FD160
02F67
0166C
F83DF
053EA
0ADD6
FAE4A
F614E
F3B07
09491
0245D
00E65
03EBA
0A9A6
00B03
FCB40
0966C
0144C
FF990
F9826
00C5F
F6A65
FAC47
F3DBB
067DF
F46DA
1A8C2
FD402
F3C7B
FB92F
0BB39
FFE2D
F7C37
02059
F6A28
FA7B0
F78D9
FDA78
01F70
0B482
FC4EC
FD422
F3027
060AE
F3861
FCF3E
03578
037E9
097DF
1338E
0176C
0B82D
FA7D1
FC04F
00D18
FFCF7
02BD9
0EB99
03721
FF0D1
05491
FB811
F9EB4
04CE9
F3675
020DD
0B849
0B105
014B0
034AB
FCC9B
FD78A
0A30D
FA88A
FE99D
F3999
F006A
0BF39
044D9
FDB09
F7E87
07015
0291F
F8490
085B9
F7816
0025C
FEB2F
F7421
FF53D
07EBD
FD1EA
04B30
000E3
00A35
04AC9
05DB3
0C046
F5E01
05BA8
F8B50
F3DE4
FC156
FB168
F3045
F8683
0AA4D
F52E2
09E30
FDEC3
F5D5C
04E87
07D58
0591C
FE47C
08D91
F759A
FEF9A
10AAA
FE34D
00E6D
FD01D
06F6F
01771
054A9
F887D
0A428
FC3B4
FD938
0A208
F5E03
03851
F5334
F81E4
0759A
08310
F3CF9
10FEF
04AF7
05838
FF556
00CC7
FC728
00553
F69B1
F64B9
14A17
02F45
03A7C
053C0
F87BF
FD2B9
13CBC
0962B
F3B29
04F0D
03032
0C301
0BD39
F9710
F5DDF
F4ECB
07C54
FAC3C
06E5A
FB998
F7FE3
F5B22
08868
0305F
0F4C0
FC98C
FDB1D
04C7A
08A12
0974A
099FD
08A59
EDD52
F99BE
015D9
005E7
04164
FF8A3
07006
09A60
070F8
FA0BE
F4E4D
F4B4A
FBC38
0056B
01762
02A54
FBCF8
FE9FA
F5A87
0085F
0D270
07698
0876A
14587
F529B
087E9
024AB
F8C38
0BD84
01E1E
F847B
03FE1
F6F2F
FEBDF
F0B61
F9CC7
F8BB2
FEBC7
FD66A
05682
F1C53
F6E97
F7B40
00082
F13CD
FB425
F5011
F144B
08D5F
038B9
F58FD
0E31F
F5452
F3CFF
143AA
F6C45
050C6
031AF
F8D82
FB084
0B214
F652E
069C7
FC396
FE1A0
FDF8F
0327A
F8270
FD0EC
F8B88
FCFCE
099BF
0DF5A
0004F
0009F
F907B
FEAD6
FD4B9
F9792
F3D74
FEB22
0BFBD
02BEE
FF6EE
01E28
F7ED5
0952D
FF15E
0657D
00F04
FFE33
EFF18
FA0F7
FCD62
04DEB
F46F0
F7087
02C28
F6BCB
F95A8
08B92
02629
FAAEA
0B575
00A24
10F68
FFCED
05A0C
1243E
0396D
F7494
030FD
07B91
00FE3
FC178
04ED4
0509E
F54E1
F4461
10892
F142E
04B46
090A5
F9910
FA71F
FAC39
EDF57
05817
0A57D
04219
F8823
1038D
0744C
F4B26
14155
0AA90
01580
F6911
05AF3
FBE13
0AEA9
077D7
04C93
FC6B2
FB288
FADCD
F4336
F550C
04BA7
FDBF7
FC60D
F7DC9
0D5F0
F7841
F81F4
FA13B
FA3E9
F8ED7
F7A1C
F5E83
F5FD7
07F14
F8EBB
0ACBE
F653A
F4771
FF3D2
03795
0A3B3
FE791
FD2FF
F2632
FD3CF
0E321
067FA
FFA3F
00FCE
08A5F
071CF
08E4B
01C53
072B6
FFDB9
0ACFF
0D869
146D0
FE790
0AC79
04C87
075A4
FE508
F9A99
04FF4
066BA
F1850
03365
01B36
F50CE
009F0
0AC45
049AF
FAE5C
F851D
06C5D
F8448
07BB7
FF780
0A6A9
09397
FE6F6
FB9A8
FF938
F856B
F72DC
0E958
03D5F
07AD5
F4C4F
F7375
014F5
0D652
F28CE
021E5
0347D
0A3F1
08F83
006DD
FAB8F
08B8A
FF3BC
F409A
F4883
0A8CF
FB62A
0A21B
0B216
FB211
001C2
04A7D
FF354
00E32
08813
F39A9
F9D9B
0B79F
FD24F
00AAF
04D2D
0784C
EEDBE
06BB3
0739D
08C8C
04292
05CE0
F5CDB
FDCC2
03664
06066
F436F
FEFFE
060DC
FDA0E
04DD9
02643
14E58
FF0DB
F672C
09E4F
0AC24
FEB31
FF851
FAFEA
027F3
F96DF
056A8
0327C
FA7A6
0AC66
0DA05
02AC5
0140E
F320F
FC2E5
FBD6A
F98A5
F9904
06111
0238B
F3D1A
01DD2
FD65C
F6AB9
08F7A
08011
FF0F5
07C19
F9A6B
0219F
011DC
0263F
F5CF2
FFA2D
F3348
027F9
0AD3D
F9858
0917D
FFDFE
FAC3F
03BC5
FB215
0E09B
01FD7
F5AA7
FE484
FCAA8
0135C
F83A7
0A8DB
FA870
07413
FC12C
06E9F
F7554
F91B5
F6F23
00EC4
F8B05
FCAE0
F3E46
FD8E9
05A2D
0442B
FB56E
F9870
05C0C
F5B0D
03C2C
0573B
F8CFF
068C3
099FC
0899E
FBA36
06EAE
FF84A
F7B68
0E86B
FD977
F52AE
F9E84
FC48F
06147
0259F
0073B
FA97D
06BD5
01B68
FA759
0387D
09B63
F5C5B
06425
F6BE6
F80D1
F8C54
F8D53
0253F
0421F
0A71F
071B5
07477
0A993
09AB2
05ED7
0592B
00E07
06861
0FD48
0E201
FD323
01509
F3481
0B429
F55E2
090AC
F645C
0B3BC
004CB
072F7
FD59E
FC106
FA76F
0AAA6
08E04
09A9B
F4514
F4C83
FC0C9
041F0
F58BA
0A964
FA682
0B0EA
F4678
FA6A0
FCAB8
0D89C
0CA21
005D1
0E94F
F8726
0D174
06EC3
F8A05
0DEA5
088AA
F4F39
F7A39
F3591
01BE5
03992
0524C
07C8A
FF607
FDF57
F6FD6
05B94
007EE
FA858
FEA21
0453B
03FB8
FD24C
FC996
FA59C
06568
09395
F7650
0444A
FED33
F5D61
0A293
FE08F
F149F
0A712
01207
F4EB3
FB78C
03683
01968
08D56
045C2
F801C
03EF2
1BFAE
08DE4
10F5B
0B493
13210
FE6A2
FD295
02E6E
07399
FF120
F9A1A
F952B
07BC7
07FAC
F371E
01DFB
00731
05FBF
F81CF
019E1
FE4D8
05127
08669
FA06E
F9BDD
0E78E
019C7
FB2B8
0EB12
04035
07F82
F508E
F57AF
057DA
F5976
06EDE
F569C
03933
05AB0
FE83A
012F6
F40FC
05AFC
FEFEA
F3E1B
03E9C
F8945
0A194
FB904
02E85
03E3A
FC9EA
FA10C
10026
041C2
FF9CA
FFC4C
0A7F0
FEC48
F2000
081EA
F8380
01DF3
03FB7
10038
028A2
094B1
09EAF
F6D8C
EEE9D
064A4
12BC2
FC900
F377B
FB7A7
01E36
F9333
091AC
F4619
F5629
16656
F6FB2
0CC4F
01746
0B49B
0413B
F9081
F3989
FD279
08108
FE3B8
07EB8
F6BB7
064C0
00750
06FAB
FA64C
09D1C
02612
F591F
F887D
F8CC5
FF53B
0885F
ED450
F6E89
08862
079CF
0D422
00796
F5757
0A091
01181
1050A
FF59C
0257B
FFFA7
06E21
04D4D
061C3
13B57
06FA3
0E850
01523
FD121
0D6DF
FE734
03BAD
FB0C7
061D3
FFB06
03BF4
F74E0
087E7
09281
09335
FD0D9
0C54F
06751
EE66F
FE4C0
04DEE
F5206
0A28A
05413
0ADCF
F9705
0A6D1
F8E62
F25FC
01986
099B2
F7DEB
09BF3
08E7A
075F5
FB826
F3B90
FE2F3
F8ED5
06F94
F3133
0351F
FC402
0D55D
05FE9
043D9
FDB67
FAD17
FAA5F
06181
028B6
FA666
0BE61
FE2E0
F5306
FA4D9
04142
F5C1C
09141
F671A
F8EE8
F6079
024B6
EE75A
09272
F6FAD
FD488
FD725
F5AD4
028E2
07436
0385A
0A1E6
04D2F
F6F57
09008
FDABD
F5B8F
FC9AD
09B7F
FB741
0D78E
FD6DB
FB0B8
FE3BE
09CBD
0E8D6
FD492
0511C
053CF
03733
05F42
FF55B
FA500
FD18F
02D61
0A177
05821
01322
052B1
FF065
FF43D
FAAD1
FD231
00B0C
FBFC1
0734E
006E7
F3B42
F6FC8
F5B59
FF055
FBB88
FAF30
14224
F3DBE
FCD86
07715
F59BB
07DDA
F5394
F4AB2
0BCEA
05199
F1A04
F960B
047C6
FD588
02F5A
04665
03B02
F8EC5
08DF9
FA9A2
08A89
0BCEC
02944
F7AAD
FE5C9
F93EE
FD000
04B0F
FE2AA
EAC16
F80A3
0B291
FC943
F6212
FD271
F68E8
FB0E3
094D1
05D83
02A79
FB7FC
F7AC9
00431
0571F
F58C5
064F3
08B11
0C772
0808D
FE4EE
006B6
0D8CF
1B9C1
F9C98
18784
04801
085A2
0323C
08F76
FC53C
0608D
0700A
025B1
F876C
F2CB8
04206
FE55D
0B90B
07DBE
05F4E
02BBE
092D9
042E6
FE725
023AF
02AC1
0967F
01FAC
FFA25
09FCF
176F0
FD6C6
F4A0B
08F08
0A25D
F1E31
FA2C6
FED33
0300F
109E2
FDA81
085BE
04DE7
02029
00CA5
016C3
0B36A
0A86C
F7C44
043A8
F607E
0F401
FA5B4
047F4
00EC9
06E33
F5AEB
0A80D
09E23
FCFC9
FFED2
08CC4
03C5D
08558
F8F1A
020B8
FEE3D
0207F
F62C6
0B757
E8DF9
01247
0B0E4
F5DFD
FFDA6
FF22B
FFD22
11962
0976E
12570
FFAA6
FF7E7
102FF
0030C
07438
06F02
FC9E9
0187E
078AC
F763D
FEC0C
05AEF
FBDEF
EED5E
FA96A
09FCE
F8ECB
01B9D
143FF
069C4
08596
F3766
06A07
F1B74
01C05
ED9D5
00E1F
04ECF
0A07D
FBABC
04154
F8A43
0B5CC
08143
09092
FA59C
009AB
F28E4
F673D
0E8BF
F8DB3
0A249
FC29D
F9492
F7CF3
F88C9
014D4
FA1EF
F770E
FA85A
FB008
0EEEE
FA862
00509
0AA2E
FB201
084B8
F904D
FF342
E8A41
0AA09
F3C00
FD504
F52F7
FCDD1
076E2
FD192
FFD73
FC42A
F36A3
E9E74
065CE
09475
FF617
07E91
F09A9
0B185
009B6
0477D
0A5BC
07663
061C9
16B4F
09CA5
0552B
09BF8
08B1B
1464B
07ED8
0A881
08826
07FCF
FD3E6
FC8E1
FA9F3
F859D
0190A
0275E
035C1
F98B5
F47EE
061EE
095FE
F0A5E
0EB8A
E930A
00710
04B67
FFA61
F6CE9
05AE5
FCB92
F5E9B
0BC47
097E0
FD1E9
F758D
F2B6D
0C67A
0CE51
F15E5
FF8F2
FC2D4
05288
FDCF1
00C16
002B2
095F8
FF839
FDC3C
061FC
10DC0
F4C4E
0AF57
FDAE0
FF570
F4E63
F7B16
FC9E5
E567E
0A0CA
F3AD4
06AC5
0562D
016FE
06431
05A5A
029B4
FFC24
0AA08
F7BC0
01606
0A61A
FE4CF
06F88
F77E5
FF040
0380E
FB0E6
100C6
0BB59
0457A
1971D
F97FE
14527
F50C4
F4065
09CE7
F7AE0
059CD
023F5
F9108
04E20
04290
F5530
05727
01213
03F39
06DEA
EF1B4
0169A
F8D41
FA0FC
FBC9B
F9386
FE86F
03B75
0CD8D
F452D
FD05D
09F1B
F7923
09B9A
0946A
0B312
FCDF6
0AF1D
EF0B0
09ABC
0CB1C
F53EB
00BBF
FA9F7
04E1F
F9886
07BCB
003E5
087DF
F62D5
FBDD7
F7349
0D8E5
04EDE
02C92
F8766
084F1
087A3
FDC03
F73F7
F47E1
F7211
F7A13
0737B
F169E
01A7E
0788A
04856
16958
F69C3
00EFC
F4C93
FDB1E
0041A
F50A8
FE845
EDEEC
0A621
FC6F9
084C3
0AEC3
015C9
0A189
0B20A
FF464
1068E
F721C
F5DEB
0E5EA
F49BA
FD0C4
0B52D
FB8B9
0923E
F022A
FACE0
F6C9D
01670
0ADC6
17968
FE4CA
F4A2C
0A052
F2BA6
F6F3D
FAC90
FDEB2
01AF4
0BBEA
03FCE
F5562
04412
F34C8
FFCDD
02E44
072D2
FFA09
0AF6F
F4227
0D44A
09B18
FC2CF
04770
F553B
04830
06105
FBAB0
F7F50
00E68
FCF99
094E3
00D27
0C0DD
FD5E1
085C3
07B12
F9F54
FBE35
FAD41
0975C
E9EB1
F4AFE
FCE90
0866D
0887D
09F57
FBC5F
FB361
148BB
F7419
0A249
F2F91
F38CE
F685B
04828
FD0EB
01233
FDEB1
0CD3E
06699
0127F
05BB5
FE1F7
19E39
067E3
13C53
FE401
FD656
0E11D
F7A64
00EE8
05EC6
FD41E
11431
FFEAF
02136
00766
FC160
FF126
0163B
FCDD5
08A6B
08912
FF77A
F7B16
FF200
0066D
085AB
123A2
022D1
02ECD
FEF9C
FC959
F39B3
084C3
FC372
07E04
FB0F1
FFE52
F5F59
0E90A
F1259
08CA8
EAE90
FC718
0AB81
05CC9
07351
051CB
FC9C0
F6E31
09F0A
0DD0F
F8332
F445F
04786
061D1
03CB8
067E8
04CE8
EA14E
04824
07FD2
051E4
06254
F934D
07519
09609
15EBF
F35E7
066B7
EF416
07579
01D0C
F7AC2
0359C
F2D49
FEAB9
1175D
F6B53
0443B
07A4B
0B841
11FF9
02DB2
0472B
F501E
09D9F
0799F
0E0F6
FEE99
0C8F7
023DB
FECCF
EEBBD
FA607
07164
08A47
F5780
0B2CA
FF360
09A6D
071C7
F8758
EB491
08F79
F1FB4
0EA9D
091FA
06607
04C5F
0ADD5
F48A3
FF26A
FD9BD
06DA2
F4E34
01C47
FEE94
04868
0F30B
01C0B
01961
F8173
F89F9
F4EFB
0B0A4
03638
FD683
0647A
05499
FCC0E
05D67
F99AB
03823
05230
0408B
FE7ED
07215
F72AC
D4A38
0538B
060C9
04894
1090A
F74EC
00129
07A40
05308
F3AF8
F503B
F29DF
019F2
FCDB9
F3F3B
036CF
F0C25
F3AEA
04C11
FB1D5
19B5E
03F09
070CC
06022
FF6AB
0A62A
FD709
F5076
077CE
052D9
019D4
01C64
00FF4
0719C
ED42A
F1186
0BDD4
FA940
00BE3
0E463
FE901
0A784
FE0AB
FFB0E
F5785
FFB2E
FA802
05DE7
0AEBE
0311A
FA63E
FD672
FCA73
09BFF
0EEAF
F9EE9
F8FB4
08E95
FEB7D
06F83
029D2
08458
FDA89
FDF33
FAB04
05D65
0A96D
0737D
FBC45
00C0B
F9A03
04058
0F647
F887E
F5BA3
02FFC
FF143
F7F4B
04DF4
FBB02
DCADD
0A412
F0BFF
F6540
0B19D
077A5
F45B8
050C6
0C0CE
F0B00
F7379
FC252
F7CDE
EC37B
F3EC4
00928
F0B3F
06A62
17A1E
F564A
0BE0F
FE896
0C2F3
0AF0C
0168B
FF965
FA3C6
F9ED4
0F755
F9E24
FF70A
0E61A
035BC
0736C
02FF7
F51CD
015CE
F5146
03B44
18385
EF12D
FE968
F91B6
FC1AB
EF68A
005E7
EB821
FB7EB
17910
F9724
04E47
06905
09251
FA56C
096B1
F39A9
F93CE
09DBA
FF9E2
0479F
07026
02B37
FEDA4
FADD0
FAA33
FE57C
00FC1
FB6F6
04EE0
FCEDE
F90EB
00DA4
11791
FB8CB
08C02
0194A
05BDD
FA3DD
0B848
0A9D8
E587D
FBBC4
03D15
03523
075B0
009A1
050F1
FAB44
0B41D
EC0F2
0710A
F08B0
F5BE9
FF2B4
0C0C7
07C22
0077D
0AA6C
19411
07847
FD08F
0DB52
01A4D
1FE6D
F79C5
1526E
0350D
F6032
0444C
F1758
0162C
14A4E
02C2A
0032D
03032
0D961
F7A10
FF7C0
FE6D0
06CC3
F8272
F8500
03930
FDBAA
FDD9B
09E18
F041B
FCC1E
122F5
03CC8
FA79E
007FB
FD7C7
01035
0B3E5
0B654
FFD45
01262
F7DC8
0FB3E
F7826
F6454
079CE
F0C38
FADF4
0496E
05452
F5F93
0A3AE
FBF2E
F7BC4
FB582
15DBF
FE6EF
FBD03
05A34
F3630
0C384
FB068
0873B
EBD85
EFB06
F73CE
FC4AD
FCC9E
FA6ED
FE73B
09257
14AC8
F4AC7
011EA
EE37F
F3F8E
02753
0A5C9
0628A
FD4A2
0B12D
1CCC2
0A621
04197
07E20
FB06B
1F922
F847B
07D18
0A1BF
09072
21F5E
E36C6
F99C6
1516F
0176B
F5962
0CEBE
12DD0
FD728
E5A74
09E9B
0B80C
E8351
07012
F57FB
FDC29
08CA6
10C7B
E2FBE
E376E
26312
07C8B
FC262
03DCE
FB4AE
F9EF8
0D232
F6319
F70A0
0AF93
F6A1F
048DD
EC22E
F96AF
00327
F22A9
0AF5F
F805B
F68B8
04A5D
06C14
07336
04B53
03097
08562
F5DF4
081D9
F5183
F9BE2
03596
0823F
F6DBD
E5E83
EA7A5
FE4F4
F7F4A
F3AE2
FDC25
03DB4
0034F
13BBA
EE75A
F507E
07E57
FE0E0
F4040
F447D
FD447
FFAE3
F9143
22E6E
05EB9
0D3D9
0AFD3
F3789
1564B
02000
F669F
F3DE1
06F90
13989
E613A
06789
1081F
F8C43
F1EE7
1E898
0BF89
04E43
F359D
022C6
F8989
EFACC
F51D7
0A925
0669F
042AC
0B552
F79C3
F4CAE
17ECE
06B3A
FAD4C
FC0AB
FB789
FF388
1A5AD
F4364
F55E4
07BD4
04090
F00D5
F0100
FD610
FC0B0
EAC9D
038FE
02800
0B6E9
F7610
FEE47
FF009
F96A3
04ECE
09F7B
F5E65
088AB
F58C6
04C93
F892D
F8AB8
06CA7
EE66E
E7BE3
1D743
F66D5
E03AC
FB3D4
04D3B
02AC6
05E5E
ED7AD
06A61
1BDD5
F8C03
04762
F76B8
F6970
F051B
F4D74
1EE26
F4B00
F3E87
1449F
F0550
1B235
F5BD3
F3F9E
F9399
03560
1B713
D365E
01CB2
13FFD
07943
E8C06
1A3B9
1893D
F6087
DE1BF
02012
0D4B7
F1301
FD70B
FEDDC
0B349
1F738
126F5
ED17A
F2D5E
197E6
F39A4
F4D08
0AAC6
FC7C9
0A55E
0EFB4
FA62E
ED7A0
F4FD4
0A831
F145C
E5F74
FBD74
FC03C
FBCB6
005F2
F6AC2
00676
05390
01311
06122
02206
FEF31
0AE68
F576D
FBE0A
04C7E
02228
FA058
FEC1E
F70FC
F6200
E6B91
11A97
FD2F0
E7384
FFFC5
0574F
0AA56
FBAA3
F00F8
086EB
19CE7
08A1F
0C0D6
F4E31
09EF1
ECD0C
F6ABF
18C34
09B97
F4032
0A757
E94D8
05007
032EC
F912C
FE0F1
FC08E
14819
E9E92
00EE2
0A94C
03591
FF0F3
0910C
19CEC
021D3
F1EC2
09249
04234
FFA26
F4B73
022EA
01557
0A894
0CDC1
FA9CB
F0BBC
0BF14
0776D
0436B
003ED
F6E66
F507D
0ED97
04638
F7A6B
0628D
05241
FC137
DDD15
FEAB7
FDC5B
3BB49
01583
FAA6E
FFB09
F6C8D
02B0C
F41AE
FF333
FC60D
085B6
09F7C
0A1E7
F4242
0855A
FAF6F
011AB
05975
F7DCD
E0109
25965
02039
ECC98
F53C6
04551
0BA23
01187
FFCB1
FAB6C
DD7B4
FC9EE
FD18D
FB9E9
F5D57
E92C4
0B4C3
0B202
0B894
FBABD
09FE2
E3415
18516
FB2BF
FE1A7
F8B97
FB3F8
0F8DE
EEF87
FF232
1529D
F9335
01377
0B2BD
07912
FB798
DDBBD
FFF60
0CA57
E75B2
F7464
063C1
0C95F
025F2
1746E
F1DAF
F60EF
206F8
FE7CC
06AF7
0677C
00ED0
07DB8
21FF0
F4966
F81C0
00139
0DCD1
F5220
E72BE
E84C7
F920F
36892
F84B6
F9AC0
063EC
F8656
03222
08FB1
04193
059C4
128A4
0B8E9
00A7B
F66C0
FA948
0B992
02976
03ED8
04C51
E8C97
14430
00CCE
E4BF3
029D7
08866
00BE1
0CD23
01620
020F4
DEB61
F9F4B
F7756
FD78A
0A66A
EACF2
F675A
18658
04E06
0A25A
12ED9
F6CBA
16878
F3CA9
08467
F7747
08A8E
04646
FEA24
03F86
0B931
FD182
0732C
FCB8A
FC75B
09696
F19F6
F695B
06532
F7A24
0079B
FDF35
0385F
FE0E5
12E6F
E77F9
F6DF7
17246
F8E38
FFA54
01CE1
FFF36
0263F
163F8
F5E8F
FEEC2
09FB8
F8A60
FAFBE
042F3
F4DCD
FA465
15C64
0A40D
F57F2
FF42D
FF664
F366B
01EB3
F8DC1
02C49
03F97
FC554
00A88
FEE4A
049FA
F7EC3
F8989
F5BE3
F4128
FB268
10B77
FF958
FB574
08134
F9E38
F6186
10FCE
EF094
F7085
E770B
01F00
F1FEB
03051
F5222
EAB87
08F21
0BA80
068BB
12D8A
13CD2
FE317
084E7
F83F7
056D4
F318A
0A3EA
FF729
0010F
F4F28
103F0
F87D8
FB06A
0483B
F5926
F5436
030EE
0215D
0C861
F0BFD
F413D
F5088
03059
03091
FCAFF
F97E4
08D9C
092F7
0639F
FB0AC
00C93
02E78
F4983
07958
FF49C
F1A0A
042CC
F8054
FC71E
0C79C
F8275
F758A
12C9B
FE770
F544B
F455B
FA7D4
03B96
FE55E
08FBE
090FF
03D86
01B0E
FF9A7
00D60
FCBFC
03A01
F8EC3
01433
023ED
F93C1
0EEA6
FDFFC
F1D84
0AE6E
FA9DF
FFEC8
04B54
ED0C5
09E1B
F4153
F5C57
01DCE
08CA8
F910F
F3C65
072AD
FFBD2
F58A3
0BE62
11E20
142E2
0BEE9
FDB45
FFACC
01221
0A9C2
06FAD
03571
0AB9C
FEE96
07D02
0505D
F38C8
F0157
0539B
0CD43
0B1F2
19002
FC5D3
08C36
FF50C
FA628
F5F6F
09B35
FE85E
FC471
01A39
06D9F
09514
0754F
0A2DA
07C6E
0DE61
0598C
FC004
F6BC1
FEF6D
08E12
11BFB
02C87
07ACA
F3741
F6C25
FF09E
F8AA5
0330F
02A34
FED7D
01598
FFB89
05814
0B6FD
FF201
FC39E
05776
069B0
FDFCB
F602F
02005
0571D
14204
09B75
12933
0AD33
0879A
013E5
14B26
E4816
052E4
EE896
F49FF
02A1A
0BE7C
027F7
03F94
FDEAF
081C3
05F50
1ADED
14DC1
06FD5
045DB
E9FC0
FAF73
F5C58
094D3
FCE32
1CCBA
FD73F
FD162
F983B
093D2
E8009
E71BF
028F2
03F68
0B631
02ED1
03830
07B5E
F87DA
F5CDA
EB8DE
FE00C
FC5A5
166F8
0064D
08CC8
F60D3
FE53B
F5A31
F4ED4
00433
F9B6D
00729
F9E56
F3D01
F9355
14295
09D98
F97FB
E4CA0
F8810
FB398
F7C9A
0B64D
F4492
FCBA3
03D4F
F70CF
046F3
01BA4
FE2E5
09E5E
02180
F4BCE
0A1A9
00DC9
F486B
140E9
05E96
0B09B
107C2
01FA0
036BA
09075
03456
F35A7
04753
F2F14
0826F
FDC3B
F6601
0B03A
01F35
F3B90
EA550
F8DC9
07BFF
117EA
1606C
FCCCB
EE264
02D03
F5A68
F8339
FCB6D
1349E
05FAA
FA0E4
0B176
1AB95
F68BA
EF0B5
FFBC7
07CE9
00156
0F60F
06D0C
06148
09E32
018A2
FF70E
0950B
0DE29
0FB15
FBE39
00F71
0AAB4
FFB34
01F5C
FDE6D
FE52B
02F5E
05ABB
FBAA4
EB430
FA7FD
065C5
FCCB7
F9EB1
F5819
0609B
FF246
01B69
0737A
FDC84
0C3CF
0B0F9
02277
F87C2
F74B0
07238
0181F
02DCA
040FD
016B9
F9D2B
F4C71
063F5
09622
0AD3D
1A355
F8E82
F5361
FB44C
11E8A
F0D26
FB93A
055FB
074FB
F0068
0AFDB
F70BA
0761A
FB530
EB59E
013D5
13DCF
FEC7A
0F0EE
F6ED7
FE555
103E5
FAD64
F783C
F0835
06F8C
035B9
042E8
FE16D
0D1DF
F0BAA
E6A53
08290
0F76E
09A3A
FFCD5
011C8
090FF
0064D
06D86
F5103
F9607
037B2
12068
F465E
F3BD0
0674B
F8FAE
06A65
004A4
FE93E
F8561
0994E
01395
04462
F968F
11B44
10446
025BE
FB374
F7162
00DD4
01454
FFADD
05D26
F590C
02E42
0911B
024BF
08783
FB883
01D99
03CBC
0B722
F549C
FC63F
0078A
12A6E
FA72B
0AE82
0A7F2
FCC48
FAE01
00254
068B8
015E1
FB304
04079
F9389
F9EA8
FF1EF
F944A
FD39A
0A085
FA165
05AF0
1227E
FCDED
0BE71
F79C3
F1594
040C1
035B5
020B6
00DD3
01F98
F757A
FEB5C
0178D
09B24
FD6B6
F9235
F692D
04A84
08D9D
FC56A
0C46B
F5101
03DA5
0972C
F28AF
01CCC
FB1DB
FC5D0
FAFDE
00F38
051DE
F9C77
F46D4
01BEA
0DC60
F90F1
FF57B
FAC67
0663B
003AC
0B33C
00EEC
F8130
F1675
0003B
F4642
0AD23
0B0E6
F4C4A
0BF12
056B2
F8034
FBD28
0336B
F3038
FAAC5
F4D3D
FAABC
F97D8
FBD81
F2DC6
0AAE2
0A66B
0281D
01262
F4778
F89ED
F6BD1
FDFCF
02004
FA151
03787
FA478
F085E
FDEA1
FEDEF
F3A3F
F5F2C
F1A58
03DC3
04877
09955
08AED
03FAC
05680
FD39A
08E8C
0535D
FAA5D
0FC16
FA400
00FFE
0169A
11484
F1FBB
F813C
009D3
F72CD
F8856
FE643
FD120
FB609
F727C
F690C
FAED3
F9B72
FA30B
06389
F6039
0A06D
0268A
F972C
0408F
FA99C
F89CD
FB00D
0D948
0A4A8
FEA15
09B3A
14141
F7B4A
F536F
F6E5B
F6525
FE71B
04EAD
FB735
064A7
FE0C2
09C83
090E7
0C49E
00CFC
FA009
02994
0B3FC
000A1
0A00F
F9ECB
F6005
0AB99
F7A35
F54AD
0B376
0AE14
F5792
06191
FEC17
F98E2
F59C8
0C461
01298
07EF3
0ABC9
F556D
02BB7
F45EC
FC210
FC921
FDD99
0C5AB
FFE2B
05CB2
02F2A
FFDF4
08BE2
F9A0F
F7CC1
008A3
041B3
FB505
FCDF4
0C202
007B8
04B0E
FB9B7
0AE23
F68A9
0AC26
F5A1C
F8D24
F4552
0494A
ECF5A
0122B
F3D44
01FCF
0F0BD
00053
F3519
FF1E7
F5565
F7B1C
0DB9B
FDCCF
0BEE5
05547
FCB84
00569
FE7FF
F32B7
0A451
F42B5
006AD
09199
F8274
F70CB
F99B3
FA077
FC7F5
F4684
019A4
F9F8A
01D2F
F9033
F51DA
FD624
F88A0
05B05
FB02E
FC34F
08B95
FCDF9
027DF
0A9E6
F624A
F8945
0C0E5
F1418
03830
083F3
024DE
09A53
0AFD2
02475
0A971
06A7A
F86A5
08F5F
08ECF
FB256
0527B
FBC94
06848
0918B
03590
FB837
0699A
06628
03B31
05CF6
FF2D8
FD8A1
064CC
F7EC7
FD142
05F79
FD8BE
0ADD3
FAFBE
01C91
FFF58
00283
0098C
04EE9
FBEC7
0332A
00638
07F08
074DF
04420
F70AF
F5044
052F4
F5CF4
03E0A
068C8
015BA
09985
FBEB5
F4648
097B8
F903D
052A7
FD5ED
FD6BE
F372B
04449
F4C12
07439
FE559
11BB1
0AFE3
00002
07BE1
FC3B7
F429A
FBBB9
F529D
021B5
01AF8
FA14F
00A54
0BA17
0AE61
0A37D
F5DDC
0F610
033B9
04B8E
FE11D
FA7BD
F8197
001CC
00C14
FC9B9
FA462
FB15E
08DB5
FA95B
0DFDB
0367F
FE802
0CD1B
10746
F39AF
F9499
0483B
02D78
F51E5
FB393
02B06
04BF8
F9B91
02467
FD663
0419A
0370F
09E26
0BB59
07ECB
0393D
11193
F5916
FEB1B
01F9F
F6C08
0ABC8
FB0B9
079DD
07FEB
FC8A7
04378
0692C
F8A6F
FF449
F7174
0222E
0984E
05CE2
FF56B
FE8F4
008BA
063E8
076FE
F6E6B
FDC96
FC446
F4804
F89BD
FD389
0AF66
02DA7
08CE0
F5642
FC1C2
03B29
07F7C
F85AA
F7F26
F8D6D
096FF
F9E1B
FD505
F9E59
021D0
F63E0
04B42
FFD1A
00925
FCC62
08B2B
064A7
01914
FEDCC
F93B9
F8B1F
FDFDE
FE6AE
FF28C
02AC8
FC219
F9F2B
0E8F8
051B4
F5965
F93BE
06B66
0758D
FFE70
0146E
FA479
FFBBC
F6FFC
FD4DB
F6BC7
FB006
F6D37
086A6
FAE8E
F40D4
03587
067BD
F62C8
F044C
F84FC
0D316
01BC4
FCA6F
F527D
FE6E9
078D6
FF06C
04321
0B937
08686
01FC4
09A72
03CF5
FCCE6
002CF
0B00B
FC42F
0BA0A
075DE
0951C
F921D
F6FDE
02E01
01039
054AA
082C6
05CE0
FB5E8
06042
07B27
F85E4
FC3DE
FADA5
0B682
F902C
05C4A
04B3A
059BB
F8EBA
FE3D5
0B1C0
F26BA
052C6
F5530
FBFE8
08BC0
039DA
F8C09
095A3
0AFD0
F9E28
FB8DA
04705
0081D
01E47
F6411
073FB
0952B
0464D
006DD
03B9F
FCC46
F7998
09A99
EFFA3
FE9D8
04355
F7385
025BC
F99B0
F5BCD
032CA
031F1
025B3
01B1E
0870A
13331
FC11C
021F4
F998C
0238D
03374
F4403
FCB22
FBD8B
FB491
000FB
F3E26
0406A
12A7A
F6CBC
094A3
0D041
0248E
FD742
07290
F2BC7
02E11
FD7F7
015FC
FF16C
0A458
FC315
040B0
032D0
F7C52
F8C9A
F8C66
01BE1
F5696
04441
0B6E7
FA628
06D5D
00E79
FCED9
FC07F
FC16C
01B53
04F0E
05198
03665
07EE4
001FE
FE618
03F34
0649A
01F51
FA6D9
10203
F43E8
0E40C
0ACBC
F52BA
0979D
F87E5
00086
052A4
0EAEF
FCBD7
07E01
F1DA3
FE1CB
F441F
FAECF
FBE85
F9B04
FEADE
F4B51
0AF4F
FFC73
F69EF
EF46B
05261
FE2A7
FB4B9
1074D
FFCCF
E8DBA
FEADE
0BD7C
FA330
0A6D6
0A0AD
F8E79
FE739
FCAB3
F1BF6
FAD74
1B857
00A22
07788
01E13
F9FD4
F70CE
F64EE
01706
F825B
F5004
09E6E
F7D08
F6F48
FE56A
07FDC
00F68
F6AA0
06E3C
F64C9
F969D
F8D1E
0972E
FDE24
046D9
0755D
04537
08F69
05AEE
1248B
0060F
FDA78
FCF46
EBCEA
0BC44
F9F37
0A0A8
02623
FD8AB
07075
F5784
1A30D
FE6CA
0C8F9
0AEAF
F25F4
FFE5A
F86B5
01E4B
FF1BB
FB29C
F917B
F4DA8
F46B4
09795
00F73
FA18B
02A8D
007A8
F4561
EEF39
FB7F9
F9A62
02846
FF691
10ED2
08713
066F3
038CA
01370
FB89C
0C300
054BB
FB681
F306B
F8461
FE061
F5929
0574E
EBB47
FA66C
102CD
042F2
0B149
12560
0A750
F7AED
F4AE9
04ED6
075C2
07A13
F92DE
F8E07
FF24F
FDD3C
033CD
FE151
FC6D2
0175D
FECC6
00EC9
00EB8
FFBEE
0B206
F53A6
F9CBE
05CEF
085CA
F4988
FDFFF
06A12
F40FE
FADAB
FE6A3
063D1
F7B9F
0C63D
030DD
F5B3B
09DAE
052CB
18FA0
0B002
0AB74
0866C
E8D7E
0ABD6
FE5D1
F7DBB
0C38F
04F9C
FE86E
F7681
F818C
F815F
F7951
F7E4D
09201
06497
0263B
05211
0BCA8
0208E
F8650
029E8
03CF3
FC8BC
07C7F
0735E
F4DCB
01419
05DD0
F9769
F752E
FC31E
F48A5
069BE
F37EB
F5FCF
F8281
0625E
18FFC
F495A
0904C
0EFEC
0EAD0
023C2
0918F
F75C0
F6D5D
F873B
F3F6E
02642
01EC6
FFF07
01623
015C3
F1841
F9779
F8A50
06962
02D7A
094EC
06BB2
FBC4A
FD699
08936
038AE
0B9B2
0F78A
06409
07A62
04E3C
FEF8F
0AC22
05B12
03F08
F82F2
0C8D1
FDD8E
FB608
0F862
0AC80
FCF26
095AA
06084
F92DD
0AFEF
0FDF0
FB982
FEEF8
F57BA
F55BE
00542
0BB28
056C0
0784C
F758B
08707
00505
FC476
027A1
FD1E8
F96E4
F2C69
00E44
07E7F
01116
0756D
036D1
FAA8C
0654B
FFE02
0D158
FEE6C
0AD73
F8382
F3C98
03669
F6FB2
099BF
09A38
F8E56
FB2B5
FF32E
0B80C
006C1
F3A9E
038BC
FC5E7
FDC2D
F3AAB
F9AD8
FEF70
F9EBA
F42C4
F78BD
09834
0B583
0A890
077F6
F9980
041E1
093C0
0741D
FB893
F2781
FCB77
FD7F7
01F98
0B704
F3C26
FFF7B
F457E
04CCE
0A05D
07E64
03B03
F8FE7
FDDDD
F3CAD
03B45
0503E
0DF9A
0A231
F329D
FB835
0171A
0844F
06084
03989
FDBB2
0ADE1
FF5DD
00DBB
08947
01706
05F54
0D20F
F5E83
05755
01548
FB052
F494B
FC572
0B456
0AD66
FD1FF
03612
F3801
055BC
05E9C
F4AA4
00F52
F4F43
0740B
05345
043A4
06312
F783C
04C5B
103E4
065D9
009E9
05B05
0109B
F4384
0942F
0573F
08675
FD5DB
067CE
07E38
03002
03686
F70CF
05635
FB011
088A3
007BE
F7240
FFF69
F6A63
FE1E1
F5BAA
03F71
FD617
08748
03BAE
0C006
00810
0A8AC
FE01B
FAF6E
F7246
03122
EDD9F
03D97
08E56
FB347
00353
0DD9D
FC8AC
0961C
01076
07E64
FF4DE
03818
115E7
00268
113A5
06714
02BE9
0BCF4
F8A8C
07F9C
087B7
FA2B5
FF638
F1167
05A95
006A0
F2EB3
08A7B
01818
F7BB7
0871D
FBB63
FC06F
00CEB
F6E4A
EFE70
0B752
085F6
04B3B
F7BE6
10AA6
F8BBB
0276E
FCAAF
05EAF
072E1
FA07B
046CF
00A5F
01215
F7B5D
0081F
03E93
0776F
F49DC
FF32F
03A42
F9D87
0A7A1
F84B2
FD1FC
FC67F
FDD6A
0A5AE
FFA1B
07416
0666B
F8ED8
FC2DB
EEF0D
05010
F74EC
07A2D
02C02
FEE88
01B43
F5C9D
082A9
FFE8E
FC48F
E9E46
FE1FF
0118B
001E0
FF84B
02CC3
036E7
13608
07571
0FCCE
04ACD
FEA3C
17E3B
FC517
13A02
08A8B
047AB
FC268
06E1F
041AF
05C91
0C105
09F1A
F85D2
F90B0
FFA62
0ACCF
F926C
0E47C
08F39
01C86
045ED
0AD5A
FAA0E
0A053
F1FA3
0938B
01464
05D75
07A2E
04A20
F4D60
F5E99
0E0C7
F9B99
FB3CD
F6171
0A20A
03A3F
01B81
EFEF6
00F53
F1913
FC19F
F8DA7
F5017
077E4
FE4D1
FE7F6
F858D
F93E8
0B10A
FFAB5
FD644
0A5E5
034F0
05A9E
FB29C
0172A
FC6F8
F5DBC
06C4C
00070
00502
FB622
FE54A
F7232
0E741
F1EAE
0B241
EF394
0411D
01105
F75B2
F824A
07373
02D50
FCBDC
02486
0E94B
109C1
024FA
1107A
FC010
04B96
F8C48
FCF8E
05ABB
FB03D
FD8D8
06B0D
01164
107AE
F6EA3
F0FA7
F81D7
F5CB5
0B093
0988F
F8B45
006E3
06466
F8A2D
0332A
F5187
F1B67
034F3
0BECA
001D8
02E9B
0270E
FB73A
03A90
04801
09407
F92F6
0087A
F1FCA
FBF3D
FD79E
F8483
FBBBC
05654
FAA96
04FCF
FAFF6
F615F
0669B
025FA
04434
029BC
06745
FCBFF
FAB4D
FA126
F66E3
03B52
0896C
FFFB2
F6475
09F31
F3B24
F5AF6
0FCDE
06A60
00E1A
FC801
011A8
044CA
070E8
F2E75
FCFF4
07A28
06E92
FB40C
F6C0D
02D58
03CEE
02929
11470
0781B
00801
16D01
08153
0F567
F5531
F3B92
FAFA4
FDA51
07F46
0F229
04842
0C890
F8D41
03A24
F4751
FC727
FD60B
0174F
07CE1
02C31
FFCAE
0CB2D
EEA52
F9D7B
0996A
05DEE
007D9
0599B
05F77
FE064
F9F5C
07160
03D49
FE74C
FE0A4
04BC9
008DC
FB2BF
0EA99
FA790
FEB9F
F6364
F5B4D
F49C3
FA0E5
F433F
01881
027BE
05224
05C34
FE2DB
F405E
06EFE
09C39
FF799
08AAC
0629C
045C1
EE1B7
0C3E5
088CC
014EB
120EB
052B4
06D9F
072AA
0D932
ED9D9
F6A63
ED30A
09709
FEEA8
F85BC
08608
FEB83
F9685
0B7FB
09C24
0DCA7
01C54
13AD3
0DCEF
05089
0EB91
01A78
0B19E
F502A
159DB
FACCD
FD1EC
F7000
1044C
F6016
FC45F
011C9
0A642
F9314
0E9A0
0F040
012E4
F3E0C
04E27
F5B28
02A10
FFA73
FE337
F97E7
050E6
F31D4
F9A19
F9EF6
F3971
01A2E
FFBC8
1269E
F94A5
F43E7
0821B
0C651
F67C5
08FA9
F32E7
00E3D
FEF9D
F8419
01CCE
0551E
05BB7
F6991
FF10B
FEFA4
FBFEF
00FED
0B72C
F5A95
0B1E0
F57F1
045AC
E0ED9
05365
F93F6
FD7C4
FFC1E
FC05A
F9A5E
F7E65
112F3
FF88D
F5CE5
F7C09
09BED
F5FA8
F7BA3
FD66E
F883B
01BFF
0C119
FD4B7
0E6E0
0E370
00FBA
0CCFF
02581
0B72E
06348
06417
FFE86
09E1F
F3653
034EE
0134F
16EF4
F10C4
F01A4
FB74C
052AC
FD203
10E85
1074F
025C9
F3C44
F5E05
FF441
06949
09079
14881
0504A
02ECA
FEF19
F9192
FDFCC
08518
08D7A
F4517
0F8A0
F6DFA
FD2FA
FF5D6
15AA6
0DF20
09CAF
EAF49
00CD9
FCFC5
0731D
F7F56
0B26E
070AC
0271E
F7F2D
FE553
F3C67
F7099
FF08E
08FE1
0A966
0A4F6
02A1F
CD820
FC087
02F54
FDF60
0BEAA
00A8E
FB60F
076C5
10611
00F8B
0A7DD
FF6E1
F43F6
FBDE7
0088F
FED22
FCEDD
F5437
01795
F9028
15767
0A147
FDD20
14423
E9F5F
0DFE1
F6EB9
FBA3C
FF75E
130A6
F969A
078D6
08C89
09D0F
E87D2
EAF2C
08215
06AD0
F4C3A
021A8
FF295
FE9F5
F579D
FE8AA
FAA29
06660
FEEB2
15CCE
FF71E
0998B
08AF3
F132A
F7CFD
FBAF8
0AB96
FAD77
0C645
F5E7C
024C7
F75CA
0EF36
031EF
FE248
F08D6
FBB54
0C199
F9229
F75B7
FE7C1
0405F
07F27
0142B
F6AB7
016E9
08DFA
FB2A0
0560C
FECDB
F4D33
F48C8
CA21A
09914
FA457
FD004
0A770
F9D0C
FBD91
FAD48
0E5F5
E9522
FE138
FFAD9
00633
FC644
0A231
04C8A
0225C
F682F
04BE8
FDE7F
0B93F
133B5
F7DAE
0BD9F
FF71C
F9891
FA753
FA71E
F5694
05030
F91B9
0A545
0B813
02839
FC5B6
01E10
0AF9B
FC28D
F3980
0A02C
FAE64
00BA6
F8FEE
FDD37
FE0B7
0368D
FD747
F7DAC
025D8
07246
01936
062A4
0659F
050AA
01F53
F8424
FAFB9
FBE76
EE0A4
068A9
FB177
FD6DD
FF4DF
ED726
0A500
FB812
018E6
F58ED
FA12F
F665E
09610
040FD
0EB58
F57A4
00232
06DEF
FF17F
FB5B3
041D4
F4287
CF5A0
F8E4A
00BDD
FA7FB
F82B5
F658D
09A43
FD535
06C33
E9CF3
F9C8F
035BA
FE26C
F48EF
05DCA
FA0D2
FC4F5
0B58E
1F083
00DEC
0806B
1567A
003E9
11E09
F5D88
FFE03
F49E2
0722A
08499
F3A17
F72F4
125AF
F6656
072F6
0AAC6
0AA28
05AE8
F7AEF
F3F91
07E75
F4CD7
08E82
F77E6
F9FC7
F616F
01F58
F845E
F6031
0BB63
FB217
092A9
05CCA
FDA65
FD9A4
1124B
0B653
01691
0805C
F06EF
F934B
FBC4F
F84F8
FE136
ED53A
09526
0A0BB
F6C65
F3A1E
06B2C
07F30
05938
F3FFB
085EA
FAA2A
01D79
FF63C
02369
F5119
0AA3B
0387C
CD46B
FA81C
0D3CB
03885
F67DF
0BC9B
FE56D
FB5C8
0389B
FAEB9
FE144
FD60B
F7BF2
FFEC9
FFAA0
0651C
FC052
F82E0
20295
006BA
F7096
15434
F6516
1AD6F
03B32
FFE73
013BD
FA9A1
05B53
F0497
05F11
11851
F6069
F7F30
FDB44
0137C
FA860
F9284
08853
0EF3B
F0CC6
06423
08C73
0898D
05734
15787
EA724
029F7
18A60
0AE60
01993
0610D
F435D
08F10
0DF57
09CCE
03C49
FD5C9
04CCD
0924C
EBC76
F3DC1
FEEB7
E9171
0A8B9
FAA4E
FF1CE
F7152
08F6B
FB4CF
09090
FD757
1398F
F98C9
F8F9E
FFEDD
02B65
F5182
024C0
07B1E
CE13A
FA1F2
02508
F4341
E6479
FDD39
03F91
0521C
124C4
F42AA
F7606
04FF2
FFB0E
FE6A7
0548B
F509A
FDF17
FA37A
19899
F3610
F32D7
1C946
E25F6
1D5B3
FE939
F2D51
001B2
FB315
10EDF
DF664
07AC7
1C91C
F6646
F1F8E
1DEE6
16E50
04AC8
E8496
0BB85
04729
ED961
FC82A
041FB
0D983
1080F
0F0F3
F3A5A
EDD9A
1B487
FD7AA
05D8F
0348F
007D4
FBDE4
15533
FF9C9
09614
F9E20
031A9
FF7D3
EADE9
F0EB2
00275
F9F9F
F7551
FC462
00B15
FDF8F
FF7B0
FD171
FC46E
F4873
02369
FBFB5
04DEB
FDE49
FE618
01B02
07084
042E1
EF246
DFAA1
1BC5A
FEB97
EBA13
0CC87
FFBFC
F4D58
00B30
0206B
0A1FD
115AA
09749
F83A6
F75C3
04770
E4E7A
FFC89
2A021
060D2
F78F7
1A5EE
EEA67
0ECB9
F33BC
F358D
FC6F4
02F2F
174DF
EBE3F
FBF6B
152C8
03F87
E8141
20A0E
1CAEB
0A236
F2FF2
F3D4C
FEA74
03689
FF5CF
06EB2
056FE
1A94F
183D6
F69D8
F8B2A
1F6B3
F7D56
F31CA
086B5
FFE78
F9217
03C84
03B3C
086F7
05333
14D75
F6EAB
EDF24
FB439
F76F2
FCB4C
F5ABE
F7588
087CC
FBB92
FD7B1
05F02
00C48
F6FD7
01FDD
03B96
07128
FECBE
F99B4
0B95E
F4680
005EE
F5CDA
DE443
251DC
F7510
E7D3C
F994E
FB669
F9817
F5ED9
0B704
F5685
340D9
F946E
FA6C6
04A91
FDBE7
FBD93
FD208
2CAE8
09822
EA6AA
07387
E652A
0825F
0DE32
F127F
0A8CB
03AAF
01589
ED507
F53E8
08A3A
F6DA5
F7497
157E7
0FF64
FFAE7
F86C0
04C2C
F4AC2
FD21C
0436A
FFBB2
08FE6
1C133
0E990
FE5BF
E3470
182A8
09F31
F493D
0B3A5
FC164
08B94
0712D
FE920
00654
03ED7
0AC9E
F6C60
E87AE
02D86
FAB34
3FB33
04049
FCDA5
FDFEB
0A623
061FD
0BEBE
F926D
F482E
FEF55
FA7A0
FE4A9
0A37D
F8C9B
FECDB
F3D0A
07F70
FE33C
E5D8A
220DD
02995
E3A38
0A0DB
FFF3C
013D1
F612E
0C48F
0ADE8
FE0B1
F84B3
0DAEB
FDC74
0199E
FF4F1
03333
048E7
FD476
0207D
0178B
E0A17
0969A
F2937
EA855
072CA
FF0A3
FE68D
EEBE2
05A54
0F875
0830D
04099
0BB89
143C4
F4992
F662C
F6A10
01A1C
F37F0
FC17A
F643E
FDBBE
0DE1B
07640
F3A7A
E93A7
0F952
FB659
F5312
F4DFA
FFAE7
FF608
0FEE3
056B8
F7B49
FA75A
15EB6
EFF37
EAB82
EFB11
FD2D0
2C6F5
F6A75
0A343
F4722
0286A
085EC
0315B
021D7
00E59
FB020
FBE56
030F2
01BE0
FE515
F821A
F7388
0469E
00119
F5BB0
1FA7A
045C4
E83A6
03452
F4219
054F4
05E88
FB58D
FF285
EAE28
00D78
FF676
0B2BF
0615B
FABBD
F4FDB
FCA00
04839
10C98
0D4FE
FFE8A
0713B
F3B96
F0451
F9F31
F8082
EF9F8
0336B
F37C4
00D4A
FC7CA
0FA63
F9E35
FABFF
F5244
F4D54
08E19
0793C
FC0C8
0BDEC
F98A7
FD1BB
084D3
135E6
008E6
05F11
01E87
FAA00
FDD81
F1F11
FB9EC
FDE1C
07128
F709F
04A55
06591
04C0E
0373F
F419D
FB1C4
FF7F6
FCE42
F7374
FAE51
02232
F8DC9
F4B64
F9B66
FE780
FE71A
F4CFE
F7E1D
F5072
054B8
FFFE9
FC7EF
03AA7
F5466
F2115
F7C33
047DA
05D51
01850
06233
FF250
06A39
08B65
F6BD7
FE140
F28F5
FD867
F513C
06C08
07F62
F8D44
FF62E
F6865
03F88
FA067
08E82
FCDBB
0DF62
F95C1
FBBBD
F7405
077A2
F13E0
FC21D
00FE4
01CE0
FC7AB
10E6A
02113
EFD85
F903E
0CBF7
FF451
06C27
FFD13
F9642
011F2
06520
FF8AF
FE8FC
0080E
0CA9A
FFE86
F4537
F66E4
F6B52
0AC02
04514
114B4
F8C02
03656
FDB9D
00E3E
F4A1F
00B12
098E5
F9351
F97A2
F6D69
F578F
F8D65
F5993
F4079
F9B77
FC87A
FF459
F1B68
021C3
FE5D3
041D6
F4683
F9134
F55FF
04F8F
F2D55
FE063
14AE3
F84D6
FD1FD
FEA3C
00D1E
00893
10EAF
F8CB4
052A2
F865B
0AF13
F6AB8
FD966
FCA08
FFCF1
042FA
F2C91
090F0
FF687
10813
005F4
F7C19
FA303
F6480
F6719
F62B4
F4DCD
0AF18
FAA06
10138
05B3E
0F29F
008BB
F70B8
02D4E
0117C
FD4C4
FF3A6
104D3
F76DD
F4F3A
F33AE
F31D1
11501
FBDB8
17F9B
05099
FFFA9
09888
F0D81
F91B3
0475F
0AB3A
F4F09
0F59B
F88B6
FEDD0
EDF3B
03EAF
14B5C
04964
F0669
03FAC
099A3
F5803
085C1
F5C39
00C10
FA3F5
0484E
F6DE9
F4FFA
F4593
FBFDC
F9129
FE868
00D8B
F8A88
05B38
10E29
1590F
01C16
07D8C
0885D
02B26
02A69
01EC1
FC658
0B9EF
0E30B
06045
FAE9E
F62B1
FB68A
0070B
00180
EF4FA
F9E03
0C40C
11269
18C15
FF45A
E9FA8
01BBD
03744
01EB5
E9675
1B284
F469C
F9E12
09C36
18B43
EB5F7
ECB23
0482A
153DB
F6993
0F872
16484
FA4AB
F56EB
FF4BA
F0F0D
028CF
FE711
1D0DE
EC1B0
F844A
F9A9C
F339C
08F23
FA396
FB8B1
FC534
FD637
F9718
009C2
F6BA7
0AAA2
0E85A
058EB
E6574
0BA65
F7ADF
0911D
F7E8A
01053
FAAE3
0853C
07F72
F9D41
01F28
024D1
F87B9
0684E
FF9B6
F38B5
FFDD4
FD24B
1465D
FBC6F
0BCD8
0ECC6
F2FFD
FA4A1
F9AEA
0F8C7
F8ED5
0896C
0ACFF
FD189
FDAC1
FCF77
07FCC
F7D32
02A2E
E937B
0478F
0C4FC
0963D
166BF
F4016
EB1D7
FADC4
F4CEF
04D93
E920C
0DA33
0AF56
0C693
FC965
2644F
F0795
F2A27
F464C
0AAC1
04876
FC343
12F86
FDE52
F754C
03479
00614
00E5D
12EC8
23B90
EA13F
095F2
03728
E7F60
F6E76
0B569
F74DF
0ADAD
0D46A
F44D1
F68E1
03C2C
089D7
0CCC2
04FC7
E5B40
08683
F662E
F5C19
FEBEB
09831
FA78B
072F4
F81E8
E7FDE
07E7B
01892
F77D8
FDF72
F4D02
F4A5D
F3FE8
FDCFB
00C49
0EDD1
F4355
143D4
023F8
FC50F
FD9D1
05B47
F41ED
F357B
0229F
FABD3
0093A
FE495
09BC4
04D09
F76AF
E9E0E
F37EF
F9E28
19F81
12529
F2F68
FEBBD
F6E86
F708F
087F1
E4383
1D504
0453F
01DF4
FCF3E
0D531
FDF60
F123D
0B88F
0A642
05271
FE05F
1D380
016E8
0069C
FE687
FB6A5
007D0
14BBE
19442
F394A
FD330
F30E5
E661E
05476
03D04
F6DEC
FEE7C
11E86
0A85B
F5CE5
FB058
0CE06
0F2DE
0AC93
E5E61
F5D6C
05079
05239
FDC21
FBFCC
FEAF7
07399
F51AE
E712C
FCA64
F6F1B
FA76B
06293
069D8
F4A56
038DB
F7093
FD26E
0B2C4
078C4
1A06B
F3863
0B71F
F8E2B
0E291
02EDD
0AA0D
1A1B8
F8524
01D79
00C12
02F1F
02AEA
F75D8
ECF42
06017
F4BB5
190D4
116DF
FE541
0423D
020C8
FF5D4
F32DC
EAC57
0D54F
059E1
0853C
FC903
1542B
FAD44
E4AAB
FA9E1
0A3E5
046A9
F6FE2
0D3D4
05D60
FF7A2
08622
F3664
F554D
0E756
110F5
EA7FC
F47FF
FB0A4
FD264
FFFF5
F73FF
02597
00960
1AA66
0A308
F5AD4
00C7E
00D20
0F075
FD4AE
E0B7C
F9363
FAF18
04BBB
FE606
FFB93
FEE26
F9883
FC625
EFE4A
069D6
F7AC6
062D6
FF46A
00797
0B0FD
FC31B
02957
0B346
09B4A
FD9A5
0FAF5
FE0B6
F3568
05B36
0E47E
04908
04B70
051F8
FC135
EFBEB
FDB2C
FADCE
0665D
FCA2B
F3102
FD15F
006C1
0842C
0B6DB
F26C0
04BF8
0AA7C
F318C
05102
F5A25
155D7
F74D5
FFC75
FC3E8
02921
F754E
F424D
FCFE9
FB50A
FD484
FB6E8
0D9DC
061AF
F534D
FC41E
F9057
F4D63
FABEC
0FEC3
F6EBB
F9DFC
0B18B
F97B3
FD7E6
05926
F7DE3
F9283
13EED
0A646
0AF19
0EE71
12819
FBCB6
F7D58
F20B4
F50A5
08D28
F5AC5
F4402
F6848
FFA7B
FDAB4
F6355
F0D44
FDE73
02E3E
09ED6
0A275
09D80
05D3D
08E8C
EEF9F
0F0B1
0B847
07E68
0418A
FC19C
09349
0A51B
0AD5D
04B22
03B4D
1085E
09B6E
F4894
FD009
FBF5C
0D573
01BD9
0751A
0279D
F87AC
0A183
0FDE6
F953D
02150
10CF1
FFA1F
0870B
FA84B
05CB4
F754E
FBCC8
068E5
0EE7D
FE4D6
05970
07E92
07902
01FD8
007E3
0E04D
F536D
086DE
0F917
038D3
08158
04A35
02D6E
F9124
F9E6F
F81AB
F7C7F
02285
0B76A
F601B
00AC8
11C77
09707
F6DB4
05B21
FC5FD
F5152
00F4C
FD30D
F3F37
FDBE3
0695B
F51C3
010ED
0A069
003F3
FC7BD
F5703
08097
03480
05AFD
0A2D0
0A855
F76BD
01224
004B2
FDC27
FD17B
01D4A
FD4CF
09BB8
F681B
F740D
FFC16
FCE28
0523E
F868E
06BE1
01ADA
FD8AF
FD4EE
FEE49
070BF
02C78
FAB01
F5DAD
03718
0BAA8
FCADA
0167F
FDA0A
FBDD5
FA107
06D45
F4A52
F91EF
01755
FB74A
0D481
F16C8
F41D7
FDFB3
04B6E
0909A
0DA30
0403E
013B3
FB282
085D2
F407D
F7C9B
040A4
03E0B
0F8F7
00F26
F4D80
0025C
FE0AA
F65DF
F4D8B
F606C
1342D
05601
03CED
0A15A
FE1E1
F65BE
0B1C0
0626C
FB1E0
FAC97
01CD8
FA5F2
0731B
0A383
FC5B8
FF60B
05273
FBA0B
078E1
FC52C
F9955
0C1CB
06C5E
0BA1D
F2388
F5CE0
06B56
F4C26
F9B61
05BC0
F93B8
FFD4D
0C03E
F2684
04E0A
0B5F1
081A9
FB6F1
0B0C8
F9E0E
0AC5C
F5891
0663C
0B626
F7D04
0AB87
06D9C
01947
0516C
00BD0
FA1A9
FC1E5
0BAB5
F7550
F9EF1
FD92E
F4E55
00097
FC7F1
0C8DA
F880A
F2371
02715
03598
0D990
F8222
031E2
16914
F63D3
F2F8E
06FF6
08B44
06622
F758E
F33C0
07310
09EBA
F4FE2
FD507
041D2
098FE
0332E
0E5CF
FF350
FFC02
EE3AE
07799
028E7
071E7
F7F38
FCF33
F3695
F4D92
03BC7
078BF
03938
FA4D0
FA2B7
F518E
FE28D
04FEC
FF520
047A5
F97B4
F468A
00078
FF605
0307E
0E13C
F54F6
F3047
07E19
FEC8F
0B533
0B6AA
FC80F
07848
08705
0007E
0961C
05225
F404D
0F84D
FE0B5
F934E
04F19
F599B
F76F2
08D3E
09984
06264
F3F6E
FDB49
FA471
F5126
05B57
FD3A8
F60EF
09E05
F62E0
F6E2A
F7428
0AF9B
ED7F3
F9A10
F8589
08483
1A2EE
07C83
0003E
FCE03
FFCF5
0FD6E
FF61A
014BA
F6B7C
04220
FC912
F2CFC
07A7A
0F8E6
02078
06ED0
02AA9
070E3
F0965
F47E5
00A0F
FE676
F657A
FE97D
FBBBE
FA2FA
05B3E
09429
FD694
F7340
FF3B8
02E3C
F84DC
04DBA
028FE
04A57
0162C
0FE0F
F9753
0F11A
011F4
F93DE
F8EEB
07239
FFA50
FEB17
12704
08F7E
053F8
07427
0A64C
FCBD1
FF3E7
0C95C
095E2
00554
FB667
E889C
0BEA1
F9EB0
F1761
0F07A
FA426
0B438
001DF
F3217
03F39
0223B
F7653
F50EA
00F22
0115D
0093B
FA88E
EC43C
F59AE
E772C
03624
FB24A
0151D
0AEF6
06803
F1118
099C7
09A5C
03793
04514
F9A80
F97CB
0ADB9
F7D03
E8F87
04CF1
1C492
FC438
12E32
18F56
01F00
F2513
0ADFB
031F1
F959E
00C78
09AD3
F396C
04EC9
0B2B1
01D0C
F8B24
F7DEC
03CA5
F733A
0081B
00620
FF398
FBC25
F4A25
05C90
02362
1B357
08F0B
07865
FB97F
0278E
F68CC
F5C9E
049FA
F38ED
09DBE
02649
F8403
07E03
FC051
1A5D6
08CEB
12ADB
FFF6B
DD055
0CCF1
FD51C
F4216
1288B
09F36
0578A
FD4E5
F2617
03327
095D6
EFFAD
08690
F7437
FE948
03F75
F64C3
FAEE5
F82D8
F4D02
181B6
0B279
F615E
1C3AD
11ED2
F5D31
15755
00347
FCD17
FEAD6
FE5C1
F0DCD
0941B
F3117
EA264
F525F
223BA
F5DC0
11E22
18719
F3CD1
FA8F5
07D04
05DED
F8D18
0A436
FE3CE
0A9BA
F9A0D
05EE0
096AA
0519B
F4E81
0A77A
FCA6C
0A9DC
0B503
04FCA
0537C
FAEC6
06A3F
ECF3A
097A0
037F7
04049
FBB26
05138
09AB1
DFA94
1A30C
FEA02
08FC5
0B10B
045E9
F48A7
08176
15DF9
F9E0B
0FF1E
011F6
EF26B
0BE09
00C43
FA7EB
10304
01B10
032ED
FE405
FDC8F
042A6
F695E
FD8BD
05F8D
FB747
022FD
F325A
0710F
F7CA5
FFA5B
F0E84
15F0C
04512
07790
1DC58
09575
E3C3C
17CCB
02841
F68A6
07CE2
038F5
F6D59
03942
FE5DC
F2204
FBD52
0F838
FA9A4
11582
16CCE
F52CB
F2B30
01C2D
0106C
F7656
044D8
F9DE8
F351C
05217
F8228
097ED
01E13
F8396
03418
072B6
FA457
F6538
0226D
024D2
0151C
1A2F2
FD440
0F314
F94CD
087B9
080A2
FA387
05A10
ED3B3
1EE05
F3B88
086BE
F4207
014F5
F89E4
F640D
157A7
0634D
06836
F63A3
EAD82
00A7D
F7E12
04D4C
14D86
F7650
09DE2
04614
F1B55
FBEC8
02A3C
EC9B8
09F9A
0B45F
109DE
F54FC
050B6
FCA7F
03734
FAE19
15FBE
FDD16
F561B
0BAA5
F9A79
F5F94
08967
0C8BD
02EE4
06177
FB469
01437
022BC
040EA
FB342
FCC83
1E303
F4440
14030
14BAF
F5F76
F657C
F72BE
08799
09A0E
FE5C9
F8505
07FD7
05C5F
F44F4
F8E21
00E80
F7AAC
F4BBF
03541
F5A96
F75F0
F87C2
F8A41
FF3A9
08A45
FBC26
14BCC
01376
047DF
01E5E
FEEAC
07E34
ED581
0C774
F6141
042F7
0913B
FAC58
0078B
031C1
1516F
00FD3
0C33F
05716
FB592
043DE
04AE3
000AE
048F3
11127
07072
08C32
FB3CC
FF2D5
FFC55
F5B07
FCB2C
F9388
0E621
096FF
FB1A7
FD3F0
FFB42
EEB70
0050E
FA4C7
FC2B6
14E3A
06946
F7526
03331
09897
0486C
F8FC5
03A80
02BB4
FE88B
0812A
03148
FC426
0E14B
F3F5B
16D54
0622F
FDCBB
00E8E
00404
0909A
FB6CA
FB8B8
09C0D
FD52C
00BEA
0B5E3
F5096
053D6
0381D
FA271
FB4C0
FF6E4
0148E
0A954
0332B
FBE0B
0D601
FC2F3
149BF
F774D
FF533
FD6B8
045E3
08011
FAF5D
0CF04
FE05F
FC48B
F3BB6
041E0
01DD8
FE02B
17029
F36EA
050E4
009D8
FA34E
063A9
FB97B
FB4E9
0451E
069EF
06C6B
FE6DB
0DF83
F36A1
01307
F3514
FBD86
F6041
00196
FAD55
05ABF
FAB5C
FE394
F5506
02F9E
F3F13
FFD12
15A0B
F26C7
00E86
0789D
F4141
017A7
000DE
FCBB9
04B65
F32CC
F993A
042A3
F6892
04BFA
01CD7
FF336
0BCB8
0DE13
F8E02
08F13
FF17F
056B0
FB4E7
FD782
044C8
F95AA
0246B
FF567
F7FCD
02D46
F54EE
F3BEE
FE617
04347
07EA5
07E3E
F653B
12D8C
FB8C7
08B6B
04530
016A0
F8A16
FD8FA
09860
F7655
02BBD
FC19A
F6385
F3704
05194
FB1EB
013E3
FC9E4
F34E1
02074
FC114
0342E
FC61D
F7F92
0E74E
0CECF
0C41F
F5E2D
F7093
0DCFC
F4B22
FE674
06AB5
FF1DE
FB299
0649F
09295
F8937
F7DE5
F8E3E
F92FB
FA769
FA0ED
FD892
FF4BD
FD7D1
F1FD3
F96F0
0CEFB
FCB68
03018
F55A2
FAB22
F8B97
08FAA
04F76
071F1
FFB6C
01318
F693C
0EE60
09316
03859
08076
F6D5F
F4CC0
091D3
00FC8
FC074
F8499
02298
01205
09941
FAD0B
F93AE
061AA
09EE7
F349A
FDA58
F5F0F
FEB07
0B52E
F727B
FCB0E
F8956
03536
FCB2F
FF3FC
09F9F
FC026
FC14D
09CA0
F100A
03917
088D9
03B1D
FDFDC
033FF
FB6A3
0C77D
05C1F
010AD
0BF04
FFB4C
13613
F8281
06B68
0804F
06D47
FECCB
00A48
F9F83
F724C
0444D
114F4
FAE72
FD5BE
06F3C
F82BF
0AECD
F8FCE
0CE75
0C11C
08649
FC5C3
EF15C
FC655
F7AE1
FAABA
FACA6
F3421
FCA7C
F5A92
00B73
FB7A0
09FC7
F6E60
001D5
FCA8E
0B1A9
0BDE9
00B7D
F2843
04F17
FE06D
07A96
F3D78
F7E64
F4A2A
F36B6
01EF8
FE48C
F8746
03242
05CB1
06928
F7A1F
F395B
0B15E
F4A98
03911
F770F
0A24B
02B88
02243
FE33B
F991D
01C96
041B5
075AF
FFC83
FDD09
F221B
F89E4
0249E
F85D8
FB537
0C374
03E9A
12324
05A57
F6B9F
15F93
FE0AA
F9275
F462C
04049
FCDB0
F4E8C
063F0
042A4
FDC4C
00FC6
FC462
0EBDB
FFCC5
ECF02
00C4B
FFB0D
0AFEE
09E30
0FCD8
FA23D
FAE61
F949F
F5B8F
F48B5
0D739
01BE3
FB8DF
FA0E4
0B369
FC0FB
F8E3E
F684E
F940A
F426A
0C461
FF449
F906C
0EAE0
11F40
05BB1
06AB6
0613D
F8A4D
00666
F5B4C
01FA2
FEFEC
FFCB5
FA716
0B7C0
0555A
FE6CF
0740F
FB3A0
FEBB3
F8094
FA214
0A48F
DFA72
08304
001D2
FC667
081F2
F83EF
F3EC5
0938A
F99D7
F2AAE
FC110
F9C45
08E57
F9634
F6469
06615
0562B
00ED6
FDFC8
FC8D4
09813
082F6
0B0F1
07057
EFAF5
06DA5
F6900
F3CF3
FA5DA
14F53
04174
093D9
09F80
0D634
01E80
E684B
00A57
0F6EE
FFBCB
0AEBC
0B6A3
F60D5
F8233
0F768
0705D
049A3
10361
0E9AD
042DF
01A6F
069AB
F00E9
F33C6
FF7E9
F3AA7
062FD
17459
045D3
00073
FCFF4
060FA
0E5DE
085DF
07279
F9F87
09A04
FA9B8
FFB68
FA33B
0786E
091BE
0998A
F9E60
F9756
FFD19
074E4
0678E
0B3BC
FDB50
01209
E1D1E
FFE13
F7791
FA94A
0552E
FC837
0B353
01202
0D554
0B374
0962B
F85D6
F5DD5
FDFB2
06366
F5995
FC3EB
F6296
0F6EC
053BE
FB33A
106B4
09045
08EA1
FF849
0625D
0A7F8
091A4
F41D8
0ED1C
F35DB
FB5A1
0543E
09A74
F035B
E9914
F56C1
06181
F4196
F8FCE
18D3E
F4774
08AF1
FA82E
00ED6
F50C6
0CFA6
12381
FCDB7
FD8B5
FC906
EECA8
FAF2F
06E6A
F5782
F59E4
134FC
F4AE1
0A53F
F5986
158C7
00ED5
FBD05
F69CA
FE522
0025E
0A416
03BA2
FD2F5
035F0
021C2
07A02
EBD8A
F61CF
F77BE
0B4BE
08510
06BC3
F6AC9
FD035
CFB00
FBB1A
00BBD
02D50
07A54
FD2C9
0044F
FE2B5
F8A96
02BAC
06298
02EC4
F41FE
F7D49
04F46
F424E
FC06E
FDDB5
FF442
0B760
FB286
14FD1
127FE
03D06
E827D
FBAB2
00EA4
F9EEB
F6448
1CD9F
FD879
02743
02ECA
1AE64
FC947
EB89C
01294
01241
F6211
FBB5E
1D1D9
0AD41
F2FBA
FC3B0
03201
FC53E
154FD
1B11E
F67CA
F96D9
FA4CA
F84BF
03223
0327D
03629
FD499
1AEB7
03ABF
FE27D
045B9
03CCC
10357
F6008
FFA13
FAF95
09BF4
000A2
FFA2A
F8E83
032BA
F4A4B
F360A
F4B0B
01DC5
F81E6
00437
04B4E
F5F4A
F916F
0269F
D0D68
0E036
01104
0AAA5
0C178
F7AE5
09679
0193E
FFF51
F8D3A
F7F8B
03B0A
FDADE
E9B95
04216
F925F
0B27B
F5844
00340
0B1E1
0EF89
0DD6A
00A65
0281F
FAEEC
FAEED
0893E
FE233
EDF6E
19F66
087DA
0AB21
090F6
10FAB
F79D2
EF4A1
FABD3
00EBC
005D1
09536
09B09
0BACD
000B1
F197C
FF128
FFAA9
0ED1F
0B56F
FB10C
F3862
09CF5
E82EF
012C3
FFA29
F9CFA
0599A
16919
FDCF1
F9A60
F4194
08FFC
07216
F8B87
03782
020FA
F5791
0160A
F47A3
F7459
F784D
05BF2
FCA8B
F60F5
F4BB8
FCB73
F6710
0582E
FB441
0A45E
0055C
C9400
0D235
FE2E7
F628D
1A262
FD9AC
0743C
FE151
03D36
FD17B
014D4
004EF
FE502
EBCA6
F674B
F5467
0153A
09E22
0503D
F5A37
0869C
103C9
FE258
0D374
EF117
FDFA4
06158
FDA0A
E8486
0EAB1
F6B68
15008
0244A
15C50
04256
F5CC4
092C9
0120A
FA3D3
0C5E0
0B047
F676F
02A3A
07BD0
0A32D
FC140
FA06C
108B9
075F6
F7EAD
F3AA4
F91F0
FB169
F9218
017C5
010DA
13785
FD9B8
020BF
F9885
02AC4
09CFF
01273
FB1A6
FAD28
00A9B
03027
09CE7
02DEE
0A3B6
FE062
F91A5
F9A8E
0727C
F8487
FBC08
FBC50
F76E7
0635B
F9EB0
C3A1C
FF92E
FF6ED
F78F2
0FE98
FFECB
F89A4
0BB9F
0B7C5
008C7
05D65
07513
F7F7D
F0C18
FD778
F5CD5
F8310
FA4E2
1135D
04EC8
0F0EB
15A98
07FE2
13C0F
EE779
E9F48
FB03F
FA376
FF022
05ACD
F562C
166E5
0A011
0794D
02FB4
F3910
FC858
FCC14
03B46
1122F
0502B
F8E76
07475
0A8DB
FC591
0F150
0A557
0617B
0B241
043BD
057C5
EA5B8
06CCB
F8C36
091A5
0A2FC
14EA8
F7C84
FEB06
02A92
00D5C
0D4F0
02304
F16B3
0245A
F4A18
F626B
F8AE9
0B1E2
FB840
F5BFB
05B38
FDAC8
06F17
05592
FC86D
F374F
08205
096EB
F4FDA
BEBE7
FA516
002DA
09505
0C59D
09E9E
0ADD5
FDC22
FF2B0
EE91E
03F44
08F44
FB413
EBF3B
FA4F8
029FD
F08BA
F4DAD
214C4
0A216
07791
11641
FB5DC
06746
F9A27
F315C
058D8
FA503
EDD84
0A052
047BF
06E73
0063D
058CA
06C1A
04762
FBB6F
FE203
0048C
0B565
FDE98
FD62C
F95B9
0C448
FFB66
021AB
F22BB
1060D
0E463
FEC02
FFF2D
FCAB9
FBC2C
01986
12274
FB4B5
0D7A7
07271
0737F
F554F
03B49
00E15
F51E4
FD5B9
04144
FA46C
020EA
04EB6
0A364
FA60B
0285B
F481A
F72DE
F90F3
089AE
FDFC2
0702E
F7FF6
FE409
03510
B47E8
FCED9
0696D
F9CD7
0457D
FF6CB
0AC3E
F5497
03D0E
F624B
098A2
195EC
F82D0
F95B2
FFDBF
FB3AD
FD94F
F9BAB
1737B
0B610
02ABF
01B56
F49F1
0AC57
01FB3
FB46C
07419
058F0
10BAF
F3350
08F8E
0D72A
FE087
F742F
1063D
100F8
0402A
E624B
088A3
FAA8A
F953F
0095E
FA6A2
06955
1A539
0802B
F9692
F7E82
14914
FB73B
FF0A2
FE748
F9E70
F5E93
01E7D
00DFB
F8613
F3DCB
06F58
F527B
E93C1
F261B
FC9AC
013D2
FAD52
02B2A
FE182
046E6
FAD7A
089BF
035D3
FC4D4
F7AF8
066B8
02240
F8991
F852C
0B614
0ACC6
02ED2
CE8E8
F594F
13E2E
0AB1A
E03E5
FB715
0A9CC
07A89
04240
FA52F
0094E
2E57A
005AE
08DEE
08846
FA7CD
E8D08
F785A
229ED
05B69
E84B6
0DEF9
EA518
06A32
FEB8D
F258D
F463B
F6EB5
0D1D7
E0640
F8EB2
09DE7
F4F9F
F07A3
239C6
17644
04268
E9A5C
FEE15
FDA0A
ED6D0
01A87
0AE12
15DB7
14FFB
FFC0B
07B8F
F53C7
13E1A
01DFD
F9067
0847D
02625
F3E47
F6CE7
F3CFD
FE963
F7407
14AF7
F1695
DAC78
F30C8
01426
F1512
05CAE
095B8
FA94B
FFC56
F5DD0
01D34
F7118
F7B04
F4CEF
0A66B
0B25E
F9898
02624
09A35
F6AD8
F71F8
DEE88
E4CD6
19BD3
F6F93
DD28D
FC30B
000FC
FA768
FD708
0758E
06B29
2E94B
01F3E
0C426
00D92
07490
F14D7
04532
17674
0A05B
EEDFA
E4A13
F8422
EB424
09BF5
FD80B
FBA41
F717A
F9CE0
F9CA1
06CF6
F0592
08418
F645F
160F5
052AF
0755C
0214D
F4765
F08D1
06EB2
FD3AA
F6E77
031CF
03C71
F4E6A
181F5
FA87F
FED3E
F3E7C
03D0D
06666
04C61
FA498
F5076
0A851
06A8D
0A5C0
FC677
0F66D
045D3
07695
FBF85
1477D
FDEDD
FC0C6
06509
FADC9
F5630
FDD86
0401B
F5EC3
04C7E
FF3A8
03297
FE9DD
F6623
FDF57
F4F57
0BAD1
F84BB
FB06F
141A1
07F0E
05CDD
050C8
02F42
0112B
F0BA2
2328D
F6F13
09C4A
0A1FA
1D27F
F5E2C
F6E90
075F4
035AA
FADA5
FFF90
025DA
FE00A
FE9F0
073BC
FF6E8
F3ABA
FA7AD
04D59
F35B1
FC22D
FA6F6
06367
022BE
F43FC
0A3AA
FF403
08285
F3CAC
04BFE
FB124
FFB02
0C2B5
FE854
FB295
02A72
F7D4C
0DC63
F28B1
F8037
06CEF
02C05
FA7AE
0AABE
F9DA2
FA8B4
07368
02981
FFB30
126D2
F45E8
F8C4C
FF972
F3E01
152E9
0B940
0754F
04932
015E0
09DC4
00D43
02594
03304
F50FC
067CC
FCAB9
03561
FB8DF
00403
05B59
F524E
FCED8
09EA5
0A51D
F7A95
F8874
F9A70
F49DF
0323F
FB4E5
0D92C
FD84C
053AA
F6347
05CF3
FB8F1
FB94C
0B8B1
0A5EA
F0E35
0082E
0F7EE
05449
04158
0E1FF
F0F70
0080E
FDE8C
F6D68
F139C
F9E8C
F4C13
08D2A
03F30
161F3
FC056
FD6EF
04802
FF54B
F7994
0332C
08454
FA338
F3B4C
F939B
0B224
04E13
0580D
00EAE
01D9A
F8EB7
03E0B
FB678
06DBC
F63A4
0BA2B
09866
FD32F
08EA3
0A187
FCCEF
F0A14
07F4F
0101F
02A55
09FDA
0028F
FFCC4
FFC3B
046A1
FAEEF
0B694
F9472
F4857
0678D
00176
FAB81
040B5
0AB7C
FAD40
0110D
0912C
FD957
10262
FC65E
FE811
F4791
FC27B
01A53
0C890
01BA5
F893D
F336F
FB0BE
EC8CD
0BC1B
F8278
F99DF
F9F09
04A0A
FD1C8
117B3
1FE6F
F924F
F2857
F562C
F7BB6
FD099
FF228
E274B
1B8EF
FE111
0C828
08A62
1B79B
F6494
EE7A5
FB6FD
11AA1
00D5D
038C0
18BB8
033F3
FAD4C
FE88F
FDAA6
0DE43
0B928
24D6F
EE994
F8EDC
092D0
DD4CD
F4EA8
FBAEE
112B0
F9171
18CF4
038B4
07E8A
F5AEE
F6578
09B7C
0450E
EC6E4
FB712
FEBC0
04844
FE0B2
F5819
056E2
FC513
F60CB
ECFF3
FC255
02E51
0B131
FD086
F5CEE
FE7ED
FCBB6
F976E
FAF14
0EF5A
F663E
15923
02469
F5A41
0C248
FBD95
F211F
F5B05
F8F82
F8AA4
EAD3C
FF469
087E4
04DF1
016A2
FC865
F8CBA
148F1
1DCE3
FDF98
FED98
F2825
F5CEC
F8A40
FACFE
F45D2
14D18
059A3
15EAE
FE237
1A06D
F3CC4
E5ABB
05DF5
0DA45
F4535
04127
13B8E
01411
F30A3
EE6AE
F6442
177FA
083A1
1B2F9
0102E
FCF80
0AC42
ED1D3
08E65
0750C
092EC
F88DD
005C7
F6417
FC106
ED817
04E13
0F106
09AD8
E52B9
F9832
F8BA8
FDE89
004D1
0ABC4
0AB0B
FF68A
02E90
F0A02
F86EF
FF1D0
F6684
0445C
F5E6F
FA3C8
07839
FA640
F9989
10A10
035A6
12AEA
09CAC
0667C
05687
0F36A
F4313
01C74
F8FB7
0AD59
F8F52
F402C
03EAF
FA1CA
FB5E4
FD01B
0A9FD
0D3A5
1A036
0481A
050EE
E9676
EE527
071E0
0820F
EE3DB
10414
FCB57
0C13D
0B8DC
1AEBE
EDD31
F19F7
FD5DC
03B4E
07000
0625B
07DC3
F42A2
F4135
F9DE0
07A55
126F7
0B557
1FF4B
ECB0A
08B53
F85D6
E64F0
F9AFA
FB9E5
121D0
F6006
FF4FD
FFE10
ECD5F
F55B1
13635
0774A
05FEA
E1E85
FD8E4
FDC5F
F8267
F3551
F93A4
F4638
FF8AD
FE68A
FC6FC
F8651
F8BF7
FD69A
0AED0
00840
096DC
09F14
FE51C
0AB90
01A5D
FD27E
0877A
F5C9C
0A3D0
F4D20
01BA6
F5551
F99BE
04485
0BAE5
F171B
FF0D6
03628
FB124
FC662
F92B5
F4A00
0A863
0EF55
03644
F2193
EC786
F0A63
FAC24
018E1
F402D
0BA41
08F1A
0F822
FD0F2
221B5
FA24A
F2773
F3D4E
0FC71
F4B0C
119CC
10EA5
FD04F
0ABA2
FADAA
FD553
0FCA7
08A19
162AF
EED1C
FD5DF
0305D
F91D8
0265A
0163E
FE018
FF449
14002
07BC2
ED5CD
02D9F
0721E
039B3
F6DCB
DEF33
FC800
07979
02735
F7543
F9FF6
0B2DE
01F25
0757A
E93CA
03BCB
FBC69
0A1EF
FF06A
F792D
09F8A
FFE11
050AF
0123E
FF4D0
052C0
1DE7B
01497
03A3B
F7959
FED39
F3C81
00952
FE8D3
FFFFB
F600E
0A479
F3770
0C3BB
008F8
F084E
01592
FA394
12F05
10315
F295B
FF342
F5A8D
FC8E8
0160B
ED8BD
0DB89
0832B
088D6
02F2E
10246
F1C5D
F30ED
F8CA9
055A1
FB7B3
FD0A1
1F5CE
0ABA4
08536
FE110
F6557
FB8D8
0CC18
11877
FDC61
002D8
FD8F6
E532B
04171
F6BFF
FDBA8
FAAC5
18F12
F7825
039BC
013BB
FB590
11585
F6C99
F0B2F
F6D8F
0A8D9
FDC0D
F65E7
FCE59
FC413
FCE58
FB831
F5CD7
0B697
F46BD
F8670
F369D
047AD
F5275
064D9
081E2
06FD1
0B8B6
030D6
1BBA7
02FB6
04E8B
F656C
02C83
02C0D
044FF
14F49
002D9
EFDBC
064F6
F6F2C
04D41
F5E18
FB703
FFC0E
02522
1C8AF
FDE7F
F848D
FBAC4
01B7A
F5D90
F9BFF
E45AB
12D60
FE0B4
FA29E
F81D7
1D7C0
FF4E0
EAC5B
04F76
083D4
08936
F937E
0F783
F73B7
01998
FF0B2
F7949
FE5FD
12883
1602F
F4CF1
063AE
03592
F7219
F3636
01D33
03653
0895C
1D59F
09390
F8575
01872
FEB14
0976B
F7912
E7E0F
06753
F4247
0A833
04AAF
FFC25
07EC5
F3A22
05677
ED005
04414
FE95F
07F3E
0A0DB
FA414
07CA0
FBD1F
FBC7B
05337
0594C
042AA
1A536
F915C
FC411
FE0CD
FD0AE
FF3DD
0B556
08BC9
0A2F0
F4E08
F99D8
09A6F
078FC
F6D97
FC136
08C0B
03807
17D28
01033
FA53E
F55A1
048B6
F7C33
040E5
FF6FE
0E0A8
F78A9
FEB92
F8F02
10B57
FE44B
EA16F
FE02F
FD12F
03DC8
04BF3
1026B
08A85
020E5
0A592
F70AC
F90B1
03EC3
0AAE8
036DD
FBDB7
056DA
F5492
F310E
0478F
03C11
04B9D
0E88A
0B34A
06997
0A5D6
FB1E6
024D6
02A1E
ED8E7
099AE
0743E
04077
F9815
FFFB1
F970D
F9C54
09195
EF560
00FE8
F6380
02B9E
06EF7
FDEE3
FF32C
FBC63
F92C9
0374E
1A94F
FE222
13DB5
00C83
0B1BD
F8A69
F506E
F408B
F63C6
12000
F6633
0139E
FE9A5
012DB
0D9C8
F75F7
FEE3C
FFCEF
F651F
142C7
07EC4
FD99C
009D8
FD9A6
0965E
00EA6
F5133
FCB45
F5299
F660E
0490D
00E95
FF87F
FC5E5
F72C2
FD66C
055F7
01F51
14421
FF12B
0873B
0F1AA
F48D0
04411
0AACC
02678
FA46C
08CDE
067A4
046B2
09256
FE380
F5C91
F8362
16A51
0ADFD
06BA7
06E17
0EBF0
0070B
F649E
FD0CC
0189C
F44FB
07CC3
F7FEB
F99EF
0B6EE
03291
FD5BB
F756E
046AC
FF3E3
FE6FC
01A5C
02741
06FD9
F7691
F8AED
F25AC
071B6
F56DD
06D67
FE111
0257D
FB188
F84EC
02ECC
FFDED
0A337
06B7E
F1E4C
F4420
06A2D
FE830
0741F
FB322
F7441
F5E11
05BB5
F9622
06F67
0B0B2
045AF
FF8BD
06B4B
FF48B
F930F
04560
F740C
0248C
08144
017C5
042A9
07252
FB10C
07D86
08EF9
04751
FFAC6
05113
03A29
F8627
FB2E2
FAC2A
0C38E
057DC
FD08F
FDA2F
FEAEB
FABAD
FB7E5
F541D
FAA47
0FCEB
FA36B
030B6
0BF90
00063
FAC4E
0B21D
FF20B
01D16
09EEA
FB79E
FD95B
FDE8F
038AF
04A56
00993
FB266
FB10B
F8ACA
0311C
FB040
FFC49
05FA8
0082D
EF0E1
EFC84
13A3A
02676
FEE4B
0B033
04DC7
F7255
0B77C
F9918
FD089
0E37D
FC188
F0CB9
0A383
0B2BB
FDC46
092B9
0ACE2
FF83E
FAF88
FCB36
F2C1D
0BC96
06A22
0932A
FCFEB
07D76
042B8
FD2E7
F50CD
F414D
F949F
03695
FBB93
FEC38
FA831
00DCE
08E34
FDB61
06688
073AB
087FD
0C3F1
FB13C
FDC2B
035CD
FA7C3
01397
FA11B
FC48D
01E3B
0770E
03CDE
F817E
FA675
13870
FAB58
03627
150E6
FCD45
F3ACC
FFC96
0D271
F5849
0A2EF
FB12E
057AE
00F78
0B79D
FFA85
04B70
03EDD
0943C
01F01
09FF5
05EE2
0791F
00BBA
FAD55
F93CF
EE9FD
15C97
F7C59
06C2C
0742E
FFDAA
0C2B8
F2B50
0AD38
F8F50
FB72C
06146
F326A
F5B28
F9223
03961
06826
01B79
F612B
EBD09
01C3C
F026D
FC035
02793
027B5
F349F
051A4
F473B
F7A08
F7B89
04CE4
01BCA
09D77
12F61
0B0E5
07F13
F7DB8
F824F
E8516
FC7FB
F7610
051D4
0D675
03147
F2636
0851B
096A7
0B296
F4F75
05A9A
078DE
043B1
07509
F1CB1
03A6A
10632
FEA2D
197EF
0B779
03472
F60AA
00792
11CC2
F74F7
F4309
FFA3E
02578
F8516
F54F2
F4C2E
F452F
F451F
0B691
08E72
F844C
F65F5
0ACA5
027AF
F7E7A
00921
F45F9
19907
F8571
0A2FE
F4CE4
F7262
FBBC5
F269E
07E58
0063E
12130
084F8
026EC
04B05
F7CFB
18904
FE08D
0DA76
FD896
F1D0F
1460B
015BB
FB2C4
0D2EE
FFF2B
FD4C7
FBAF8
EF2F7
012B4
01703
021DE
F4DFA
03C3C
0B379
0C5C2
F8E4A
F143D
FD57C
E9F87
054AE
F7A4F
02BDA
1A90A
FB55D
FA37C
03C22
FCD06
FB4FB
0A484
FDEFB
02BFB
0478C
005D2
E660E
F8449
21BE2
00632
11E19
14677
05250
F7078
FD73B
0063F
F962C
FC339
05CCD
F6A87
0A605
F937E
F69CC
FAE5D
F8783
02BF0
F5256
F71F6
F7D32
04D53
09C6D
FEDC2
06FF8
ECA26
0CD63
04C1A
04C7B
F61C9
0786D
FDC29
E52C9
0DE61
FE527
FDF13
091FD
FF4A2
03C1D
000B3
0D7C5
01E24
0F1B1
F6CD4
E4D03
0DE1D
FF9A0
FE592
FE944
FBA9F
F7474
05307
F6099
FC448
FE1A0
FC9AD
FEB8F
FCC2E
0EF0F
F9DE5
FE1AC
E620A
FE4D4
F4541
17F07
F5051
00435
148F7
10896
F577C
0D5C8
0EEA4
F492D
F3C24
F642E
00889
01372
FE780
F092C
00E66
1928F
F94F7
14D88
196B9
F544A
FA1DA
03F61
0C26A
F62A9
F4EFC
FC2E9
FFEBF
FA92D
09549
FAF47
01983
E8F4F
F7447
F9E92
084CF
F9E57
FADE9
FBC0C
011A7
0B64E
EFE51
1BB5D
06475
0A9E4
033F2
08EF7
FC6A4
E8D7B
077E8
04EDF
00461
000E8
0A7E0
01ECC
F53F0
12762
00277
0696E
068A1
E7D4A
1318D
EFD51
01BA2
0900A
FA681
F7D51
0B525
F597A
FD9E5
F5B70
F8EFB
FF78E
0543F
085A9
F9C6E
01D70
EA878
F66D9
E96EF
0EA02
05C93
03164
20AEF
07B38
E678C
0F87E
105BF
08553
FEA09
F79F8
F73A0
F5318
F6930
F6C6D
071E9
17E3D
05EEA
164C2
0D404
00718
F8D4D
0B121
FB971
05C46
07C9F
09BDF
073AC
FCBEC
09FA6
FBA4C
02829
F5EB5
F3255
0A9F1
FAC98
FE924
F69C4
088EA
0BCBC
04648
F2EC3
0D1ED
037DB
07502
F7BD3
F8B41
0649B
E6619
0C35D
FDE82
F968D
04372
0960D
F4898
F92D4
0EDEC
0A4EC
10D98
07D79
EB388
02266
FF709
FB22B
09EF1
F7600
08820
F7F93
FFBC9
FAA34
FB045
F7950
01C04
0916C
143C6
FCE48
0AC1E
E8DF0
07372
F361C
09067
0A029
07742
18B73
0BA44
F3370
0F3C7
F858B
FF852
05A30
FFFC1
FE868
01444
07641
FD18C
FBBDD
218D9
09EC2
14A57
06D25
054CA
EC604
F5831
03C11
0323D
F9B65
FBF88
0B609
F6025
0408D
02711
F7C3E
EFD0B
05A63
FC23A
FF81B
F69BB
FB54B
FB6AE
F5DE5
13DCB
EAAC7
11ECF
0117D
10631
0C8C2
F3DE4
078D7
F25F7
15B60
FEC4F
04C84
F3D7F
059F2
09C26
FA49A
0CC68
01488
19365
04488
E82DB
146E7
F8D7A
FE422
0468C
000FF
F4A68
06A71
F2FB7
00861
F9709
055FF
0B42C
022E2
08935
0B0ED
03C74
EEC8A
04592
0030C
147AA
F4A5F
F3158
0A32A
02508
F7307
FFE01
0B59A
01507
083A6
06903
0834D
FD099
0B356
FEE13
00C76
1CE70
F803B
1AA90
0C09D
0371C
F7DB5
FDF96
FB124
FF8D3
FFBF1
F8330
F793F
F3445
0BC08
044E9
040D1
EC798
00D49
0B103
F5E49
FE530
06D54
FA908
FEAC0
0EFA8
F71AE
07A22
07190
0BD11
FEF22
FBA40
FBB8D
FCBC2
1659E
FB5C4
F0AC4
FA629
09383
F8E91
FDBFB
078C8
F8996
17F08
FF4DA
E8A1E
0C27D
08216
09561
0C63B
04884
FFFF1
01BF1
076D8
07841
F75B1
F252A
F4F27
FE410
03255
F3A00
077E7
F9253
F8FC6
F1C11
1025F
F5D35
065CB
02950
FBE2D
EAE96
F718F
08EAC
072B4
FC83C
01AB1
0AA2C
0AFDB
07C57
06388
07DBC
13FD1
019C9
05EA2
0F767
0B3DB
F927A
06554
01490
FFE5E
001CF
FF9AD
05A05
FABEF
0ACFC
FDF6C
F3D5B
F84FB
02F77
F6E3C
01C2F
FB495
F481F
0ADE7
06224
FA5B3
0490C
12EE6
FC01C
FAFF5
F6C3D
FD431
FF46D
FE4A4
0F46A
F7FBE
00A51
0AE38
F46FE
08046
FCD24
02426
0A81E
166C6
04591
EEEE1
055E9
F5141
FF940
0CD28
0F7C4
04672
FDC8E
F6561
F710F
F6C5B
05F08
F7167
0221C
FDC60
FFFEE
027D6
FCA81
F6345
F89B2
01C1B
FD11D
F93AC
1819A
FCC1F
02913
0CC97
0BA31
FF71F
0578D
FA037
F3B12
F8D09
06B15
00B19
09803
152F7
07FD8
09E7B
0C739
F9B6C
04CEB
09B9A
0193C
FD5CE
FCA3E
F898F
03B64
F38B3
F4E54
097B2
FFFD5
063E5
F8483
04F0B
FFABB
0ACA3
F9771
097C7
035D3
F0B9A
07838
FE1B4
038E2
04CB8
04242
065BC
F8AFD
F9B54
FB4AF
F91B4
EC783
F3689
FF2DE
FBF67
00568
13F92
0981D
05F5C
F86A3
FB0E4
137B6
FF792
0CBE3
06330
FC7A0
014C7
034EC
F55D3
FA3E2
FF1DF
F85BA
F910E
0C188
04513
F5FA4
F61A9
0281D
F63B0
F9809
018B3
087AB
FF327
15D1F
F968B
F140A
0D629
000DB
05E62
F863F
FCF7B
04492
FDF2C
FE86C
FEA14
F813F
04A8B
FEB64
03A41
06CFC
01E3D
0650E
F369F
F738B
FBB30
08BA6
F7C4D
FABDA
F3868
07662
04D65
FAE04
F60EC
F608A
039C1
F7BAA
F35DB
F960C
08200
077DA
F90DA
F63DC
FD79D
09E58
15EAA
0B968
F677F
F9A00
06973
075C1
05ACA
FC78F
FC02B
02C20
0A79A
F3ED1
05F34
027CE
0C0BB
0A377
F3744
1708F
0470A
F92C1
01745
F545F
FFA63
FEFE5
F111A
14A32
09A1C
09709
09D5C
0BA78
02EB2
F1C0A
08D54
0990C
02935
01E6A
12A44
F6568
09D4F
0F499
F8539
EF3F2
F8FC8
0DBBB
08780
F8AAD
01D87
EB373
F31AE
F6066
F9D2D
02AF8
13B36
05E80
0105C
11C68
FA3FE
FDB9E
FF105
02D06
09F40
00AF2
002F9
0575E
098CF
F85E5
FB2B4
FE63D
026DA
FA89F
01611
FC34E
0A0D9
0A775
064E7
FB45A
E70BD
F236C
0E9EE
F9560
04066
FE0CB
F5348
FDEC6
F3329
F6F5E
F9174
FB85A
F67BD
EED33
F76B5
FE70B
11D28
F3FBD
0D931
FC869
FB48A
1EAF9
0491E
FB392
EE51D
F5736
0A56E
F671F
F6CE0
18DDF
FF50E
09A52
F4506
0ED31
01C9E
FAA5B
FE267
00B3B
09495
F48DF
1330C
049F5
FC2E0
FE3F4
0699C
F3049
01979
0FCFC
02CD8
084D1
F9542
F3672
04158
03851
F4289
053E9
20DDD
FA620
020E7
FA3BB
09776
FD142
03016
0665F
FD49E
F5074
FAEC0
F6529
FA632
09789
FEDF5
07A57
EF9E6
FEE0D
F76A6
F8249
FE26C
00D3D
016C2
F8178
D04D0
0554E
F97B2
0222D
0C45B
FDFA1
0A543
F4BB0
08330
05B11
001AE
029A2
0151C
EF6CD
FE5CD
02841
0DA79
08E54
09B69
F921E
0151C
1580D
0490C
F71F1
FE426
F6E4A
0A361
F68E7
F84C1
15777
051E1
09040
FF1CA
0D9C4
FAA1B
EEF1C
0A087
01618
0094A
F5549
149AD
FC592
F5A77
0FB89
0462B
04DB8
13A57
0D842
EEB3F
0A135
F7C1F
F8517
FDBC8
F49EC
04075
F4146
0FB6F
077A5
086E6
FF2E4
07230
FC155
05AA9
FAE9A
FDC5E
0BEA6
0584B
09944
F6EAB
082D5
06034
010BC
EE382
F8D2C
09EDE
03980
03A92
F93BF
FE114
F4C0D
D3215
FD76C
0130A
FFE26
0C565
0A461
F4009
0B361
08312
0C35E
0AF38
FECDD
F4DCA
0335D
02066
F9448
03849
FAC8A
FF2EC
034F3
FDC4A
14896
056D5
F1EB8
F0FAD
FD7EE
FBE61
0A489
E0336
16A10
F74EB
FF176
F597F
213A9
EB7AD
F3C37
F66A1
02CCB
090DF
11A64
1096C
06A7A
07FCF
FDA7F
FAC23
0E4B6
120E1
1AEB9
FCA32
FB6C1
00A69
F2323
F613E
FC6B7
026D5
03358
0AEEE
00D53
FEF21
FF495
11AB0
16294
FF6FB
FAB28
03E72
0BC37
F3AAF
F6F9E
0827E
F819B
04B98
05310
EA208
FADFF
09132
0184C
FE901
0C335
FFE11
FF7B1
D7726
00ACF
00607
FC499
0D6EE
F846A
04BC9
FAF1E
00E75
0341E
062FB
098E1
0183A
EE03D
07863
09502
F59D6
07F76
03FA9
F4781
01164
0F2D4
0E390
F511A
E88BC
E72D7
01C38
00F72
EA57A
0A10F
FD370
17541
06D2D
220B3
FC288
E5254
FDBB6
0D7B6
098D9
0240F
0FCBA
F4869
FAD08
F6BC2
02CC5
0B818
FCEE2
15ABA
05F9C
FFAE8
04552
E1238
0800B
F5BBE
052FA
03261
14AD6
FDEC3
FDB3B
EDFC3
123D1
0D69D
F59FF
018E7
F7CFE
09051
F760C
09434
FEDB8
FBA7B
F8BF1
0B5C4
EF914
09604
FD702
F6293
F69DC
00DD0
08400
F5176
D0AD5
08CF1
F2671
0082C
0730D
0B5CE
FAD70
FB358
0740A
F88EB
FE964
FD1E6
094D3
EEBEC
F4F55
FEE91
F5EEF
F60BE
0CC20
FB7E4
0B9D7
1AFA6
04506
FBD7B
ED2DD
F27E8
07980
082F6
F0C48
0E6D5
FA84F
16846
00EFF
12D7B
FCAEC
FA404
042A4
02B37
04106
04A2E
0D625
F7CB2
05D3B
FD6E0
0926A
073DC
F9F53
1A759
FEF03
F81E5
F544F
EB388
05716
01C77
105E5
FA537
FF903
05AF2
F99FD
E9DA2
072E5
1198A
FB626
F42FE
02636
F9F08
F5F04
053EC
F831F
095A6
FA16C
04DC9
F2288
FBA50
FA27D
09A02
F9FB5
0974D
046CF
03991
C867B
FCF72
F6911
00104
125CD
01F48
07935
0C168
00D17
F3F33
05394
01C5D
FB952
E8E9F
F467C
F574E
FA822
FC064
0FE0E
F6160
FC767
1AE94
010DD
00106
E053A
EC11B
F9DCB
0684A
ED47B
06CBD
046EA
0666B
09B8C
15F6C
FBC6B
F3EE4
00BC2
166CD
F519B
0C4AB
10950
F7CD8
FFD1E
F94AA
0C5CD
15850
0EAB2
0E6C8
035AA
F7E4F
003BD
DFDC9
F955A
05ACC
00EE2
08839
0E862
FFF6D
03D51
F8FE5
0AD1C
129C2
F5E9A
F6EAA
FB1AF
06966
F8E43
F7E30
F9FF1
F5367
F7296
076CA
F4AA3
0AFA7
F57BD
F9883
F9634
F3FC7
F403A
F9523
AEEDA
00B15
0BB52
05233
118D7
0C111
01CB9
0C274
0C1CB
FD247
05A80
138D7
00EC5
F9F22
FD32B
F43F5
EF424
FAFCD
0F867
0300A
0F61B
13D60
FB2DF
0AD65
F15DD
EEE67
FDE1B
017BC
EB684
FD51C
07C9A
1CECF
0A79F
FE25F
07BDF
F526B
0BB22
00B96
F4702
FC9D8
12B6C
0A121
03676
F6A5D
086D1
14371
017B8
07A33
00CB6
F3FD7
F53BE
EEC3A
021E8
090C9
FE999
0582F
05592
F9C13
FC09A
F7FD5
EFA0C
065A6
F6256
FAA10
0AADF
05797
0A4B3
0139F
06414
089C4
094FB
00AD9
F87FA
FA603
09B85
06516
FDB90
FC0E7
FFD94
FC492
C3D53
F591A
105E4
F888F
F5379
F54CF
0A9BD
FCA74
FB9BD
01341
F56B6
1BB29
FCC75
E9C3A
0AE26
FE546
F602C
000ED
06999
07C80
F002E
EFA91
F47CB
0E520
FD31C
F79A6
06DF0
F679D
08F32
FD22C
F9B16
08053
FCF51
F9CFE
09217
FC2EF
00F0B
F50E0
F9056
0174D
02CA2
F70DB
FB2AB
F52B2
0E345
FE202
FD0D1
FB2B9
FDE9F
FAFE1
080F7
F3628
FDFBA
07EC4
FC712
FD8B1
F8A56
F41F5
0D9EA
F3579
FA3ED
094B6
F3DCD
F72AE
01B22
FECF7
05BD1
0A8DE
096A5
F8B39
FBA19
FF4B8
FB106
FF19D
F3E9A
04883
00903
0726D
097C5
023A6
C9DD2
F6AF1
0C95E
F4000
F7255
08B1A
FC9C3
0A459
FC9A3
176F9
046AF
2A25A
0AF94
0679F
04F59
FB2B7
FF78A
FEA63
0A524
F80E3
F1D28
EE143
F43DB
F56FB
11C52
FC53C
F55A4
F73DF
02BD3
FF25E
F3541
EB9DC
003E1
F3590
0BE32
0A64C
F483E
F450B
0047D
E7725
F50E5
0B75B
033BF
FF61B
05435
FC086
0D5C1
FFBBC
F377A
F6F76
FAD95
1159C
FE2A0
044C8
EBB4B
0A514
F8DAE
F544D
11508
0B080
F6439
F91D4
01732
F5E63
FC2A2
01C0E
074B0
FE52B
FC076
FD8B0
F5E2C
FEC75
FA293
FCB69
FA310
FECC9
F8392
FE306
FC09E
F5D6D
BFFB6
085A9
FDD64
07BE1
F2C08
06BBE
FEE68
03BFE
E409C
1E56B
FCFBF
33035
FAB61
12263
FCB53
04760
02181
02AB4
06F90
07DBC
00697
D545D
0709F
E736C
22665
0EDBE
FAF65
0025E
F710D
187EA
F5F3A
D3B7D
00099
FE084
F4B68
02D41
FFC03
1B94E
07FB8
E5579
0A09F
0A806
F32E9
F1172
F4298
F67C1
174EC
FA8A4
E1191
0755B
FED08
082FA
FA932
F4609
EA4A8
00660
010AC
02CC8
F7B53
08756
092FE
018E1
01971
F6745
08CDC
F4CC1
F3279
FD74E
03AF9
F8928
FEE02
F4400
F0075
F85D3
F8431
F51EB
FF7C0
04343
F62B9
FCC74
00CE3
0D8E3
06E2A
F8A7D
0FB19
FFE75
07051
043A0
DD2BE
28930
0856D
26FD8
F805B
1645A
FC26E
0A567
1C021
00480
EBA26
04EC3
FD0E9
E5982
08015
E0C35
09D04
01B67
FDD8C
FA5D5
EF1D7
02556
0032A
E95C4
02423
FAD84
03843
EBDC5
F6F97
1CA5D
0052B
F19FD
08BC9
00CFA
F4DE1
F4933
037A7
060D0
096B8
05E0C
DAF95
F73AF
008D8
FD788
07386
FDC00
E7231
02F6A
EEBBB
F833F
07EB4
F0F7E
F8857
1E941
0824B
EF3A8
FD475
05B1D
FFE00
FB318
02C25
FA1DA
FB08D
01FAA
F6D76
058AE
FB66A
F93E5
05C18
0C0F6
0A6A1
F8FE5
03AE7
102F7
00A91
FEB0F
13FF4
FCC09
F3BBD
F4EF4
E9B8E
2305C
FB4AE
13E76
FDC7F
15B8C
03537
01CB8
03C64
069C8
E77F1
08883
03D83
0E8B3
FEEE8
EFFC2
E8876
E4651
FE6E3
0158D
F1E71
0F3F1
FBCBD
14087
F438F
0E1CD
F4D8B
EEC9B
01E85
FE015
0657F
FF4CB
14041
F7B78
F4C65
F08E9
157CC
1235B
0BBC4
0C490
F7FFE
094AE
F56B9
E7A85
08EE6
F8583
01C2B
08EC6
FAFBA
02297
04227
ED045
00FD9
1AD9E
F778E
ECBD4
F6B5B
FF95D
029E2
F6412
FCBD1
FE2D9
F9FDC
05934
F11BB
FE91D
05209
FE59F
F3855
F610B
FD503
01F0A
F5742
0A553
FEF87
FD1EF
003A6
09B89
FE442
F4DC5
0B760
FF082
01CAF
F0CD0
FB206
F0E70
F8643
F954B
F535A
FB808
F9856
0201B
13D70
127E6
0022D
F5A39
DFB9F
E3505
0784F
06E44
EECD5
18F1D
FF9E5
1AFA9
FF4D0
26B0F
F045E
E108C
04474
10974
0B76A
15AD5
17CEA
F4DB3
FA3AF
E9277
0812A
0FF9E
0E0F2
1F1E9
EF955
FA230
FD3DB
E5286
0A9AF
F53DE
0578B
0A1BD
097B6
064EA
01FCD
E31E6
FF7EF
20029
06221
E3A05
F556D
062D1
F8060
FCA2E
001AB
F588C
01A9F
F7653
E2609
03F09
FF125
062D0
F6424
F6B90
0B6C8
F9968
09584
0370F
0B332
04913
0BA63
FED6F
F899E
03575
0BD06
F2D3F
01765
09C55
0423C
F7CC5
03247
024C8
E1CFE
00FCA
E8073
03A04
0E13C
2131B
0A28B
ED518
E7ABE
EEB99
0B73E
FBD12
E0AA4
FF656
09878
238D8
02BE7
12424
F7A6E
F170B
FB528
FEE13
0928D
0D9CA
1FF48
036D6
03E92
FF283
05B06
0A8F0
F91FB
1C750
EF46F
F7454
F699B
DFF60
F3CB3
06C51
1AD6E
0B20A
019FE
0A9A1
FF9FE
F7812
055FF
195BE
06F11
FD2DF
01B97
F5717
04DA6
08E94
0A363
0AC7C
07BDF
F8A77
E54D2
01A88
FB935
FEFFE
F7A2E
09331
0452F
F4301
071B5
F18EE
10E41
F9109
FA41C
09A44
F88EC
F8718
09A3E
EA1BD
05293
FE53C
0965B
F5CF6
01063
F5897
EDBB6
F406A
FE8BF
FCE9A
FFFD4
15E7C
F6F47
F05F1
E7939
F7286
FF3AE
F6F35
EEB21
00ED5
04196
13F26
05000
213BC
EF57D
EBFF9
0C36D
0B8F1
05A31
00C63
1D2C2
F85BB
FD040
F73F8
FF489
11ADE
04A5C
1A237
F3373
08739
FE1DA
ED15D
02954
F81E8
1055E
F5975
05252
FBE5D
04918
E91E6
FD891
11454
03965
FB5C6
F8B31
F7A75
01105
FCB74
06FAE
FD328
07F49
02D79
E6D51
070E0
F7147
F7C6F
FEB3C
F5D71
03722
FD6E1
09B87
066B1
0FB38
FD978
0350C
FF87D
05E1F
FFFAB
113A5
FBC85
F6668
0760A
FD47E
FBBA2
09A9C
FAA41
EFBD1
FBAC8
F7B2A
F8E78
07316
0C997
FFAEE
FD7CB
EA6C9
F6EBF
030CE
00CAF
EF467
08118
0B117
0C073
F54B3
142EC
FF758
FE728
FAE94
04552
08084
0A48A
094B8
FA1FC
08AB8
08767
0F71E
01032
FBEB7
17003
EE94D
FDEC7
F954F
E95FD
F7F14
02FEE
0376A
FD7E9
16F4A
F5D5A
00F65
F552E
F3C42
11316
0A412
EBD6F
04A66
F9728
02BE3
F951E
03723
03044
F4922
F4BD0
F15D9
F904B
09D36
05ADD
04E09
F78AF
02FAC
08D43
FC02B
FFB92
09745
F6D76
FD390
00698
FA42C
FDEB3
FAC1E
EC281
03881
0577F
03CC6
F3EFB
FDD9C
01C8A
F9CDD
079C9
F95A1
FD26B
F724E
1BF2D
FAA8D
EDA68
FF22C
F92E5
0659D
08904
F3CA3
09CA5
FD705
FE4D6
02A0F
0FD6C
081EA
ED085
FED32
FA874
0A2F6
F2EBB
163E2
FA060
FAF9C
02EFE
FEF3F
00B94
1631F
0E52A
F27F7
0AA12
0087E
EB64E
036BF
F3E09
FC6F5
FBF06
15C4E
F6C6C
028BC
FE747
F766F
03213
067AB
F6FED
0C1D1
FF45F
F7CD7
F5016
05C37
FD7B8
052B2
01319
EB16E
F3243
01C77
F348C
0322E
F55FB
FCC51
0AFCE
F7FD9
04291
17FFB
09BB9
185F4
0999A
FBC36
F6719
0327A
FBAAB
FE668
1928E
FAA0F
FE6DD
FC3BA
FBFE5
FAB32
0043B
F3554
F9B4D
FA3B2
1CD92
0087A
EBE98
F9952
E9BF8
F9EE5
07F74
ED81A
FEBDD
09B6F
F929A
FF7DB
1BD32
F3296
F7A24
FA108
FED91
F4794
F1285
1E9D6
F7D46
08A91
0895A
0C9B9
FCB63
0F753
10813
EB23F
0795F
FEF03
F7F71
F5513
08FDA
F7818
F4F57
0D271
F5792
0B44E
0A150
F57E8
117B0
05839
ED427
FC452
FC99A
061A4
FC82D
FB7ED
FD1FB
FECB4
F51CA
DFCE0
05AEC
F9CC1
09BA9
0A72B
F9C3B
06583
F5FE9
F61FD
06955
19E6A
F6E38
0906F
F371C
FD7AB
F5F07
00416
02B9D
09DF9
1D766
FF9B6
EE605
FB0AB
059BE
0CE0C
F447C
F504B
078C6
F320F
10605
07870
F7FCA
FC2FE
F3F01
05091
F6096
F04D8
FCBA5
00F47
FB5E2
06387
0C2D1
06743
0329E
07A2D
09FBE
01F28
FE9E1
09DE7
FD8B6
FD947
0DD3B
07D50
FBF0D
01A70
19563
FB947
0924C
F9ABA
F0639
FA2E2
F481B
EE963
03BAA
1B402
04A7F
0B9E5
0C635
F498D
02CC9
F787B
F7E53
FE79F
07135
01287
08B35
08FB5
F5797
07C72
015F0
F2088
0AD92
FE246
FDB84
07696
FA322
FA108
F51CC
04C0C
FB9AF
17D55
0076D
0F530
F9B60
F5FDD
F5ED3
03D72
1310C
FEA4B
15996
FC1B6
FB118
0BA8A
F94FA
056D5
0954F
0382A
F78FC
FAE7C
1EF8C
036A8
04774
055C4
0362A
09299
F4A7C
F709E
10573
F56BE
023BA
FEDBA
00A29
0747F
FD0D9
056AC
020DE
05C7C
EDF4E
0DB23
F98D4
0B16F
1B14A
0CAAE
014EC
1233C
09928
F5F2B
06405
09A5A
F606E
F5FF6
06638
00A5A
03C5F
23311
FDB3E
1482F
0DADE
0718B
FE207
FF167
F4D9C
F472D
07DDA
04CA8
01AD0
0472C
FA255
FC590
05EDE
F0A9F
F845D
07B45
FF4DD
F55AE
0339C
FA906
04F40
FEADA
04F7E
1AB7C
FC3D0
13376
0903A
F75DA
09D36
F97D4
0854F
02449
04E13
08691
F1BD5
FBB79
0766E
12968
00E6D
0E2ED
0AE34
F199E
177AA
FEC62
F2321
F8CFD
09555
0AB5A
F5B62
FC349
09D91
FFCCF
0763C
F5AC4
0F3A0
F8319
0332C
02417
015ED
06F20
01B05
07577
F6B0A
FF6F9
12606
F8A9D
EBE15
09C6F
0068D
F3D78
02793
02451
FEBB1
F5887
08407
F6564
FBFD5
0AECE
027B9
0AF6C
113FF
0994B
F19E8
F741F
F298D
FE63C
F6B4C
035B4
0303E
F7634
049F2
06B20
F71A5
FB275
02216
07C08
FDDD4
F8583
0912B
085C6
0113B
F2D6C
F9D72
1ADF8
03628
07E53
FA652
0446C
0B40D
EF2F6
04E2C
F712C
04644
FB725
00E96
F7C43
F7E96
059E1
06149
0411C
F38C5
F940B
074A4
07584
02067
023AC
FB07B
FCA48
F695D
FBD28
F6F22
F8365
F0791
08739
0F98C
0B187
FE869
047A0
FBCD4
F6C0F
FA1EA
0677F
0AD44
06EC6
078B5
FFF60
F8169
0CDA4
076A4
FB472
064B8
FEF39
F0E13
04510
0AC05
F82D9
FA20A
10A6C
05B85
08DFF
167F8
FA059
F392D
080B3
F6C83
FE656
02A94
069EC
039CF
03177
04547
FFE15
00F01
FB0D9
F4320
F9604
F8DA2
099AF
0A4A1
034E7
F5947
06055
05E12
1752A
0322F
FED24
F6BFD
FB5D3
F4192
FF851
0A80D
FDBF4
028B7
06E91
FBC09
F9C4A
F56D7
04E9C
0A435
067C9
FF3C2
F0E24
1A4A8
FC022
F4981
0A85D
064F1
F42EE
02E41
FFB01
01824
FC11F
FF55B
057DA
F9ACF
0B0D0
092DC
FDEBD
EBE6F
FC232
EBAEB
0A2F5
FEA69
0799C
207F6
04B43
FB69E
FC0B1
0A1F7
05D37
00829
0106C
FC378
FA4BB
069FE
FDF5F
FA774
2719C
031AC
1B638
1C746
F0996
FAB29
F3B0E
08C19
00D00
F972C
0645D
063E2
F812F
F8B9B
02411
F4BD2
EDAA4
FE58B
FAFB8
F3B12
F4405
08B8C
FC02F
0B1C0
F8496
FB8FC
0B085
0A1E7
005AD
FE15D
FBDBA
F7F90
F1CC1
085B0
07D65
0714F
F8F64
0197F
03DF0
08EAF
188E1
F48BC
0B55B
F47BE
EC505
17748
FF818
FC6EE
0E969
0A806
FA8A9
04A10
FBD80
F09CC
04393
F35B4
0695E
F8F3B
0DC6E
0B909
F99F0
F4A07
FF082
F8242
0E575
F9C14
05C4B
2753A
11E89
F1176
FE553
FED01
034B8
010FD
FA26F
EDF02
09129
F69A2
F3978
02D1B
160D9
F7C97
0E68B
0C9D7
01781
FF24F
07106
08850
0300F
0A399
00553
02C7E
F5F25
040C5
FDFF3
0338B
E45E0
F929B
07648
FABED
FC470
F4AF9
FE20C
02E50
F835A
F8B30
181D5
03687
FCEB3
F9E5F
037D8
FFD49
E613D
134FF
FE9E7
14AB8
FB600
02394
04960
02CC0
16BC6
FA458
18DD9
FF194
EA466
1DB39
FC366
F167A
0C686
FC935
06ECF
F46D0
EECA2
F6F5D
0126C
EBEDD
03BCC
F9289
022B8
0219E
08DE4
ED7FC
F64AD
E1C66
1C07C
039CC
FC7FF
1C8D6
1450A
E214C
04347
FBAC8
047B6
F5424
FCED8
F1A1D
FEDBC
F876A
E3B0B
0097A
22E33
0ABE7
1D9C8
1DB94
F5FB2
FEB52
01DF1
FF719
F5CB4
02F94
F5129
0AC09
030A1
0A8FF
FEA12
0AE6C
E28B4
FE94F
F5227
06FB3
FA0BC
FB0AA
082B9
F7F08
044FB
FAB39
171FF
FBD2B
05357
06046
FDE4B
FDC95
E7B5D
140DD
F9659
06327
06442
05ABB
F763F
04611
1EAC7
FD2C0
0CB28
F41EA
D5EC2
0C1BC
F36CE
FADC9
0DABE
045F7
015E8
F748E
F9670
07A4C
F8BB0
EC9AA
06B91
F6AA4
054D1
0384A
FDE7D
F4858
00D1B
F2666
111B5
09F4C
F77F0
2C141
13FC7
E6663
0967D
0057B
FBFDB
004F2
FBF75
EAE8B
0A9B3
F7DD8
F13D8
F6AE6
28331
01CF1
235E0
08203
F6C53
F7DE3
FC082
0A232
F4EB5
018EE
01AFE
02C97
F31E3
F4F53
FCDDD
08BFF
EA03B
F4A2D
03D29
FCB5B
FE5CC
F9274
F73BA
F5567
0094F
F48F5
19C68
FCF34
102AE
08307
0B54C
06578
EE3A1
15B73
FD356
F6538
F9DC5
F5F2B
F7EC8
F42CC
19518
02A44
0C94C
FBE86
DB36F
1B058
F917D
F6B9D
FE2BC
FF307
F5AFD
FF28C
EC346
FDA4A
09316
04D5C
FD4A2
0261D
06672
FF113
0BF47
F5F18
F706C
EEAC3
0599C
F91FC
0AFA7
17B0F
0D520
F7FFE
12AB8
FF615
016E5
00CFF
03E26
FF356
066AD
FC178
FA694
FB840
18AD9
02F41
1E5A2
0786E
F441E
F2BAE
F80C9
01472
FBEEE
F43E8
032B5
0B1C6
0253E
F45CC
F9500
F5C98
F2468
F54B6
F5D54
F6675
F886B
FE7E8
FAFFA
07FCF
FFF21
F874D
1949B
FD3C0
0759C
0C285
FF0F5
03D6A
E43F0
12AAD
08E8B
EF1EB
FE816
061C6
F603F
F9BF3
2019C
01E08
06760
F49AE
E6B2A
0B9A3
F4066
07B43
04787
FE3F6
00D2A
F4EAE
F8F96
07DC6
0AED9
FEFE2
F86CA
0915D
0A4E5
F6A2C
0984D
FFB30
030BB
F800A
09BB3
054D9
FA870
0DE19
04615
FAAFA
0948E
FE2B7
F7515
076C2
F8F05
02541
01CF7
F3810
EC330
0922B
1A9B0
09C8A
1C505
1A9CC
F3404
F5875
09C40
F9882
08C44
F65BA
FBD83
FD845
023A6
03BDE
05987
F8555
F41A6
0AB9F
0AEEC
04B66
F3896
FDF4F
00AB7
0C3A8
0D454
F726E
16AD1
0A9A7
05282
F5086
FABDD
F6CF4
EFBB3
092A8
F46AB
EA075
FA219
FDA8D
F80F0
083F0
1433E
F7B82
03F5B
09E6B
EA638
04020
044C2
F2A5C
FE965
058EC
0755F
04774
EF0D4
0F68F
F7A48
EF07F
01C64
FAADC
FD624
FCFDE
FE1BA
04B4C
FBA6F
F3A70
070E8
FA669
FE848
1C979
FECC1
FD0AA
FC290
02B8F
0EB21
06B5E
F9625
03CE2
F451A
F908D
F2A40
01BD5
199AF
0AFAB
18477
17A26
FA03E
03FA4
FC730
F8791
00D92
FCE3D
F4B79
FF6BF
FE43A
075E3
F63CA
FD1AE
F13B9
FC7B8
FC7F9
F37E2
FDB81
0A47A
0234D
03A02
EF3E8
EE34E
097DE
F7754
00C8D
07D4C
0667E
F4080
FAB4E
11471
0873C
F0E5D
05911
FE022
FC0F6
F7DF7
04CBC
044AF
16D10
028B9
F9444
1A060
F91DA
00903
FA435
F9248
FF865
0176D
02A38
FF5D5
F57C5
04783
0C0CA
02778
01A5E
F14D2
075C0
01787
FA217
F6C1D
14E6C
0AB15
FD8A4
1B513
F9DBC
F6AD1
0C1BC
0F713
F70B1
06915
00815
FDF42
FB851
FD777
F5C66
F9F45
18ABE
07471
155D6
14574
F768F
EF2BC
06A41
FB35F
0C061
04D2E
FC8B2
04084
09887
FC5AF
0193B
026C1
FAB78
F65F0
F9C5A
FCA51
04CD5
032F8
FE95B
02083
ED62C
F1123
0C4AC
F46B9
06631
08A4A
09FB6
0BD2C
F1F6C
0CC5C
08CBD
F527E
05584
04382
072C9
05CA9
0E3ED
F5084
13199
0069C
F5492
1E016
0050C
039DE
F459D
FAE0B
04BA7
F45BA
FC6EC
FB0BA
079EB
0554E
053E7
0423C
0ADAB
0539C
08938
FF040
09C2C
01B6F
10124
FFFCC
F803E
1246A
0BA9F
F7483
FFBAB
FF129
F7DD6
090C3
F51F6
F14B6
00D32
03D1F
F4357
FCC6D
18470
F6AE9
075E9
09A33
F498E
F84D5
F9D72
00E08
0630A
01041
FA7FE
08127
F9437
03802
0B7AD
FDC3C
FEA31
F77C8
042C6
091F3
FB39F
02557
00EAD
F822E
EE461
FD167
18ABB
02169
04930
F76E5
046AA
FD5D4
F896B
FF443
F6CF7
EEFC0
F6FE0
F68E0
040A4
FB14E
0B229
F7498
14B3B
F9990
F6A9B
20ABE
F1A48
FE860
F26A8
EFE3F
F93E7
0A951
FB8AF
FEE41
00BA2
F2620
FE917
0E1CA
02038
FDA8F
F8BCF
03B8F
00CB7
FB0D9
1314A
053F6
058CA
112BC
0E804
F8353
05664
0FCA1
016E0
FE32F
F7A61
F7D06
00ED3
F64F5
F7009
F758D
12F2A
FD347
077ED
0CC4F
05D54
03F33
0263B
F85AF
F3D91
F9481
F6D2D
05B8B
067C1
F5C43
FD2F2
F4CF7
F54B4
FEB5B
08F73
0B293
00B09
01FE4
F478B
03195
D86EF
F4110
035E8
FC4DF
110CE
FB338
06282
08331
F3BF4
0E4D3
0087F
F7E61
0215F
017DA
08BEE
011EC
038D9
F9286
184D8
099D3
EAAFE
1BE0E
F7F0C
EA994
EF76D
EFEC9
FD74F
0207E
E2DE5
0BF9C
0B345
066B2
008A0
0AC09
0B002
F0B5E
FE048
00D64
F4801
EFEB2
1FFA9
0AA0D
05F6F
0CE44
14BF4
F4B07
134A8
1429A
04695
0A9F0
F6DA6
E3C77
04D6D
FD811
F09AB
F91B8
11F6A
FC778
042A1
F9D20
F937A
0A7C9
F8824
06657
09961
FE90E
FE6FF
0582D
FC4C7
06C70
066A6
0960F
EAFD7
F4012
FEE62
0922A
01FFB
0212E
FCA66
0019B
CDADA
EDC64
1784D
06F9A
031A4
F89A1
F7ECD
F6ADF
FF80C
0DC85
F42AD
EFA38
F4D8B
00B21
F6284
07D42
154BA
F89CA
000F7
0268A
F4C6D
10220
01396
EB111
E9283
E70CD
F9093
FCF7F
F3602
10816
F9791
05108
FE333
0DE06
FA9ED
F6051
F9097
FBEA8
03B85
000D7
129A8
F7F35
FC46C
1220E
FE27B
0074D
1436D
116DA
01B9E
F61F9
FBD06
F06A3
045A1
08B00
F7B69
00F0E
1BFDF
02B87
0F3C2
FB6E7
FD68F
15801
01EB4
FB4C1
F5E65
FBB70
FA3CA
01C29
04DB8
F690A
F3A7E
F8E92
E33A3
04A96
FF1B4
03BE9
FC9CE
FEC17
FE908
F97C2
DD714
F7515
0C897
07C9B
03CA7
FFF1A
01014
0B0E1
F6B93
FDA12
022AF
FB3F0
0102C
F6F44
FBD91
FEAC2
10EE8
04CCE
0971F
FE118
0012A
13FB4
FECEF
EE006
E549D
E92E5
03082
04FAA
E6DBF
03C87
FA142
1055B
0530E
13D40
FFBC4
F7C0E
085C6
0B9D4
055B9
051C8
1A7E0
FFAA2
01AA0
08124
0E422
08B9B
106F2
2023F
F2AB8
020F7
0619D
E2138
04020
F9953
10094
08820
106D9
F3C32
FEDF2
F3006
08501
0B821
07F31
F6636
05221
FBA07
01859
FE735
F9F0A
F4C4E
0239A
05C5F
F11AB
062C0
093C8
0A5DA
F3E6E
03BBC
03739
08B64
EAEE0
FEF1B
F7D80
FC3ED
091CA
07439
FE14C
04194
02DEC
03556
05B73
F4BE0
01028
FB20B
01ACB
FCBA0
FB822
F3F37
060BD
05584
0118E
1AB8D
FBB54
FDE9D
F33A8
E5DCA
04C43
FF93E
EA8AF
0C5F3
F9665
0547E
04458
0EEE1
03378
F398A
027E7
1563F
F47DE
0F277
0EDBB
04626
0A243
08F89
0D07B
16235
0EBA3
13175
F4EEE
0B1FA
0B0A7
F1B04
FD259
001D1
1165C
F5E86
1A09F
03255
F261F
E5787
FB5B1
0BD31
F8B5B
FD118
FCB84
087F4
09AEE
08F6E
0855B
F93A9
09902
08F40
F3FE5
08307
FE5F5
04F1A
00AFC
079AE
0488C
06263
D4D50
FF00F
F5984
0C0B5
0E5CA
01808
07B01
FF739
FC1E7
ECCF6
F6B92
04A09
F4441
F1706
F78CD
0B8DA
EC72B
FBB22
087E0
08FA7
08246
2AFF8
0E714
F7F1C
DEEA2
F0022
F8111
F7F04
E4C9F
07A71
FE013
1D914
09DF2
1C2FF
F1500
EFB89
03E6E
0C6B8
F8563
075C2
23230
F7520
F4E37
F13B8
005C4
17D21
0C12A
237FE
F4CAE
FEEA9
021EA
E7F4C
FAAB2
F444F
0CC3C
F412F
09704
FDF80
02407
E956E
04686
134ED
FD92B
05A2A
08684
F6635
0602F
F4C50
F3402
FA7EA
F5B25
F477B
F2641
F56EA
073F2
00470
F7886
02340
064B6
09A97
CEC1D
0004F
F7F5E
FFD1D
0529A
027B9
02305
FAB5A
16798
EC574
FD925
08E08
0904C
F79E7
050E7
FC1C8
F4C01
0ACF0
05E4B
FB420
11E6C
23596
FBB76
E7D04
F0548
DBE56
004E5
0A689
D764D
1B5D4
09443
0DF6E
F8B3A
1AE68
F67BD
F1C40
F8E54
0DA31
0312B
056FB
250ED
05975
0473A
F624B
16D72
2868E
01084
1B655
EFB49
0A13D
0689D
E9A97
F425E
03156
0C480
F7FE7
FBF1A
F4622
FF9AE
E33FC
F8E56
1ADF1
0B81E
EF84F
FACF4
06A30
F8B15
F4D11
F550A
040CA
0A82A
09E60
E8033
0B236
0529D
018DE
FCA82
F6C9D
F7962
04BA9
C5280
07352
001C2
F739B
0ABB5
096CA
07CD5
FEC95
0816C
FC8C7
F423F
1A8BD
FE181
ECE73
FDE56
0B1BF
F6DC0
07827
ED8C0
02CA1
01F44
0EF25
02144
FACE5
E365D
EC071
FB85A
0727B
E34A1
0896E
FB2EB
14F1A
06E87
1865C
08D0E
EBB5A
FF544
0F0BC
FA550
0EDB1
0F8EA
06E21
05894
EA474
101F7
0AD35
0E078
0F774
F5C39
078CC
07680
F874F
F9ECB
F7D7F
0D103
096E6
05FCC
0A46F
FEA21
E30C1
FC540
0EAE0
F9D2F
F9460
FA40C
0050A
0B6E6
F9145
09A41
F627E
FBF08
0A572
FCE82
00253
06AA9
00AF5
05FAB
F9ABA
F67D0
F88C1
DBCBD
FB4B6
FA6E1
03163
09B65
014DB
F7C7B
0673B
09A23
F31F5
03A49
2B8E1
FCC5E
FC5BC
07931
F8E9E
F9B72
083F4
04D97
04DE8
0665D
E4F77
0FF49
F60EB
07105
FCBED
FEC3E
04805
F5360
17C73
F7AA2
E6895
FF094
0AF7B
FEBC7
FF604
0C105
0EBEF
04A6A
FC18D
0FB67
07824
FF509
E6601
0B2BF
0499E
1AF1C
07C5D
DF41F
00183
08FC6
F64A3
FD1D3
07842
E6AF9
F37F8
F5A84
F581E
0A4A7
FE515
FF22C
0ED04
FB7EA
FEFBC
03B71
FFF37
FB87A
09844
FBF9E
FAA94
FABD0
0B929
FCEC5
049FB
FE281
0375C
06683
FA9E0
02CA2
025BC
D70EE
0E0B6
ED005
0B33A
118E3
FB2D7
07F99
F46C1
F83EB
1D3A2
0A370
3FBA2
FBF51
0DB21
F9A31
02047
00623
05D4D
EE7A4
0729B
F3D99
CBE34
101DF
EE523
1DF56
08EE2
04F43
05546
F59B6
066CD
039DB
D2301
F9238
F2E18
F9723
EE656
FF2F5
12403
05077
E8F50
0D1D9
0A5D5
F9CE3
F976D
03059
F5E26
131E3
F93EF
F450C
026B4
08997
07C43
FA4BA
F922F
D9625
087A6
F4EEE
FCC3A
0D355
0C449
0133D
0C2CB
F9A9B
FFC66
F6816
F85DA
FFC83
00B17
FBBCA
F5421
09B5D
F3454
F9739
058DB
FCAEA
F6237
FA320
032D5
FFB4C
F99E8
D3E71
1B485
EB208
09C84
19496
F8F67
077FF
F6654
E96AC
2C302
F4219
3CCFD
FF10F
103C4
FE6EF
06B88
202C5
FFE65
E746F
02A06
01A80
DD3FC
0A421
E3971
0CB6D
ECDCB
F7DF9
FCB93
EC9ED
0031D
04652
EDE55
F5F03
F866B
0C3F2
F7DF8
0B4C0
0FF89
F49B7
ECC03
184E6
F6F75
09D2B
E80A6
FF32E
0352B
1D922
0C2C8
D8077
F3FF5
045E8
11925
F7C11
F871A
E3613
0804A
F662C
F3CC4
F30A0
F740C
F95C0
1171C
FA734
E13DD
F87AB
F5417
04373
F357D
FB2CA
F5ECD
078A4
0A08B
EE3F4
017A9
FD736
08728
F7E92
02A45
04E09
F5412
00EEC
2154E
FA8BA
FDFAC
0A0D3
FC8DA
F6A26
08924
F3260
167ED
FD6E5
22135
05197
26F2B
0BD4C
05D8E
0BF28
08B23
D9365
0771C
106F0
E96C2
0C8A5
E47F2
F966C
F44FD
FA641
00DF4
FAC17
07951
09724
EF94B
0B152
02F95
FE28F
ED0F0
FC006
0F5D9
F9594
FA65B
0E60B
04A91
FE254
EE770
0FCB9
07C0E
0A668
01F8F
E6512
01D70
05872
00EEC
F5894
F516A
F04E7
0A2DC
EAF01
031ED
EF8AF
E9B71
0387C
13BB2
F672F
E2CD8
F6878
07CC6
08D53
0BBE5
0AF8C
F7DE9
04F72
04B07
030DE
F9C69
F653E
0B1FF
0BB3A
F8002
F9E00
06340
004C5
20BB5
FFA8A
F8469
12B3F
FBBB8
FBD85
F9FD8
F9A92
1874C
F7879
0646B
00E3F
11F63
FFF00
076B0
FD22B
FEBCC
D31E4
F5C48
11D4A
09D36
FB8B8
EEF5D
F39E8
ECF25
01D23
FC8F5
F20DC
02D79
020F0
1572D
F3E46
0941D
06E85
EFED7
0554A
0A148
F76A0
F8E2F
12017
F555F
08DC0
E6FAD
0D912
15B8F
1583E
1934B
E4967
F934F
FF4F6
EEF74
F44E8
002F2
0DA46
09DC6
FDB4D
047BF
F8FEE
E83F3
F7583
244D3
081FD
ECAE4
FE99F
FB2D6
02BF8
F7E6E
067FD
00148
09C37
F6900
F6B43
030C0
F638B
07BF5
FB3A7
F7C7A
02315
FE9DD
FB2E6
08694
F7F17
F6B15
F3CB9
FC598
F6479
FE9BF
011D6
1011E
0B639
0B250
FEF21
040D2
01FA7
079C0
EA93E
FCB9B
E7ADC
071AF
181C2
20EE9
FAFEA
E6786
E2933
D571C
F8F74
F8B8B
D553E
F6E8F
F97C9
12070
074B6
1E54E
069C9
F4AD0
FD57D
0C6B0
FB0EA
100FD
294DF
0AEF1
08760
EAF9D
22E59
2D9D5
1A7C3
17D42
E9078
FC679
F4386
E8159
FBBD1
FBA69
0E9FD
F4A5C
FD2FC
07E46
0596D
D5BAB
E90D6
2C8BD
FFE9F
F0061
0BE53
003FA
068A3
0701A
FF7AC
F64E9
063A0
FF295
E40E3
FCAD4
06110
04843
F6CDE
04ADF
F639A
007E1
0AC0C
114C4
016A6
F93F8
FD194
F8151
F9A27
FD139
08F89
020B6
F3BEB
175AC
0643E
08E7E
004E5
FD41E
DA01D
012AD
D9B79
01C4D
193D3
2031C
FDCA0
F05BA
EC425
E07FB
02A22
FC558
D622B
05E92
02494
29FEB
031E4
28867
12B58
F00D3
FCB7A
02087
F72DC
FDC5B
25749
FBD8C
08212
FF272
26AB0
1ED99
033C9
10F68
E7B07
08D28
F40BB
E48A0
0954E
07BCE
15575
0913F
10847
F31AC
11D4D
D6884
E97FC
102A3
F33C7
FE6D0
05632
F5AF6
05515
02644
0615C
F6D96
00AFB
FCF97
DE583
02D24
F7634
F548C
F5045
F8996
F608B
FC6F7
07F15
F9BBF
FF59B
06268
EDCC6
0602C
04853
01812
F9F3B
F370B
F99CA
0F207
05D79
00D9B
07F20
F3C83
E8CAD
F3608
ED38D
0041F
06BF3
2DF6D
F59B9
F0D94
DBB57
D2174
02614
F4022
E92C9
007A4
F6FB2
1EED7
06BD6
1ED5B
0E138
0391F
F834D
02A99
FC6C8
01FE9
1C1A6
00469
FB6E5
FEF86
1F08B
12FBC
FAE76
1BDB4
EE48C
F9D45
03C31
DE63D
FA59E
06669
0C368
FB3B2
1AB80
FAD0A
018A1
EAD1A
E1F3F
16747
FE236
09A41
F3F04
07B22
0A959
F9CDE
0ABC9
F717C
07077
F4796
E06B9
027FB
04DF1
F4A2A
F891E
FB923
0B6AD
08DBD
03E0B
02779
0D227
FD005
F33B0
07A25
FAABB
0230D
0948E
F5CB4
029B9
08997
0387A
E9E3D
F96F4
0345B
ED5E6
0AA91
0A0B7
F44F3
F11B1
24CAE
F7BD0
FB102
F1864
E8B6A
07796
F8F9F
DE443
014D0
05A06
1E383
0C103
0F4BF
0AD95
FC426
06025
F9F63
0BDE7
F9557
113CB
030FA
0AF39
0068B
09E2C
19737
066F4
0B434
FF166
F6D24
F8BF4
E84F5
F4178
F9372
0B2A6
00895
147F6
F69A7
0BF3A
E9C25
F3C7D
06985
08425
036A6
F7026
FA0A5
060E9
003BF
F376B
0215A
014B1
F950D
EB291
F36DA
02C5D
053A8
F684C
051C1
F58E1
FC3BA
FF685
FB7A6
0D4A0
FD34E
FE903
093ED
FF60A
00ED4
F76A7
01273
FFDD2
11976
016C2
EED02
04F48
FD07F
F83F6
005D1
FF970
FFD10
E9931
17CA9
07C8A
EFF20
F51C2
E7863
013AB
0AA5E
DC4AD
1274A
F7215
0D13F
F59CF
17845
FB8C9
003AA
FB57D
086EE
F941E
F45C3
24938
FBB86
FD0C2
07898
0E5F8
08240
04DB3
2141C
EFB11
0044F
F9C38
E3135
FB777
093C4
F2FD7
FAAE0
2143A
08941
03992
FC968
F8BAD
0725E
03E55
FC713
F601D
07D75
0AAF6
FE26D
FB505
0151A
F5EAE
0904F
E4114
F99F6
F9A55
047E7
F84C6
FC7DA
FCD48
06BE7
04FCE
F7B7D
17AB0
F95E0
07083
04A02
FC1CB
0A727
FAB01
066B0
06A7A
1C0E8
0AF3F
F0885
057F5
06632
06105
07D7C
0A5B0
027E2
EECE9
2764E
F617C
EE616
FD56D
F9D35
03614
F730A
E8573
12594
FD625
04B54
F57E7
0EABA
0C8C5
EE4AC
FDA7C
02BB7
FE339
F963C
0D7B9
0C2A0
FAA62
097E6
051EF
02A08
0268B
14744
FC190
0B363
04FA3
ECAAA
FA2DA
F3ABC
00710
FF277
1C127
0731E
02B1E
FE893
F3792
05684
029E7
EEF72
F6B26
0ACB5
031AF
07F8E
FFA9A
06B16
FDE7B
04BC0
DD9A8
FE1BB
F9518
05B87
09874
0109E
F63C1
022B3
FE25D
025B8
12B0F
F7940
01264
018C8
02E0C
FF459
FC5A9
00558
0BA9E
0E0E3
FB73B
009DB
0B06D
023F5
029C8
F9517
076DA
06CCC
F7917
1285D
01C83
EE0B7
06108
ECCD1
F81C0
FE154
E9F38
08F18
FE734
F5DAD
01E76
15C99
06561
FDAEF
0BE59
FF923
005D4
F1A10
12B85
FD40A
FB1CD
161DD
034C4
FB8FF
09E34
15C67
FD3AC
04D87
0051D
EC3EA
060B4
F63CB
0543E
F75A6
1886E
07580
0D86A
0F0B9
FB5A9
06300
FCB15
FDCFD
089C5
FDB9F
0B79E
FDF44
FC20E
090C2
F5F61
00282
E20AB
FE628
F91D9
0401D
FD181
F4A75
F3086
04A4F
05EFF
FFE63
1DB6C
F67CF
0B2D3
06413
04F20
FECCD
FA7E1
12537
FE5C8
13652
06ED1
F2B83
01832
FEFCE
12A23
01F2A
00EF0
01A50
EBA61
0999B
F67C8
04293
01161
F3207
056E5
FB13E
F79D5
FBB02
FBE31
01F4B
F737E
0C5F1
F71E6
06BC1
01DE6
00563
F5502
FAA48
167FD
FB0E4
FE095
172CE
068F0
ECE7A
10F06
014C9
01E83
0B725
0078B
F4839
F644D
0A2B4
03542
0104D
17AF0
0A96B
15C75
07D58
0240F
027A3
F539D
FA9A4
0008A
0AD30
0615E
070B4
F61D6
FBC5B
03212
0B864
ED6B0
F5A4D
0214B
F4E68
0B147
F4B1B
04DE3
F7BDA
02FD3
F35B1
0A96B
FF7C1
03919
05BF2
F3993
0167B
EDB53
036B4
03133
00DFC
F7914
0741F
F8267
F7FBC
06AE3
05EC9
0B02D
04349
F9C92
0FC66
0BB3F
F9B22
03611
FEF55
F5E11
0B837
004DF
0A794
F48DD
01DA4
07D42
FE1F5
02EDD
F7912
FA763
006D6
FC5C1
F9730
0DAA2
0773A
FB047
107ED
FBC3B
EE88A
FB643
04A5D
06BC5
F9096
03BB5
F0AB6
06887
0A4B4
FF91A
004BD
1BF18
042BE
0E9F9
0D129
007B4
F867E
FE850
01639
03282
F9542
FFC53
07906
FFDCC
06045
03C6A
FB734
EF1B8
FC63F
F9210
05ECB
F62AA
0107A
01868
F5E54
047DA
F6BEF
0EE16
04D6B
089FF
FE1AE
00029
03A00
F4010
FB306
FADD8
FCB4E
0126B
FB007
F7DAD
FF4B1
089E4
00A77
0DB2A
FADB1
042A5
17B86
0DD18
091E7
01366
FFA41
0A0F3
0B8F3
FA841
FF870
FB0AE
02844
0B9E3
0A1DB
F656C
FD5FE
067DF
F9DC5
FCFE3
08AEE
0153E
F72AE
091C0
14C86
FC302
F012B
F7DB6
FD7B0
04845
05A85
F74B6
0569A
FC545
FD302
F8A17
FEE1A
19B60
F3CD8
0AE41
035DD
0822F
FC890
074A7
F407F
04979
064AD
01ABB
01CE9
FABED
01CF1
FDF91
FD3EC
F7BDC
FCB16
F41AD
08B0A
034C5
F8F29
F77E4
FD3C1
FBCB9
F62B3
0742B
F6162
0ACCA
FB4A7
03B35
02D01
F8B59
FD728
FB659
04275
FCCAE
041CC
012AE
FFA83
10590
F827C
09D7D
0324B
F2B4B
0EA3F
03EF2
F7504
06F87
0AEE3
03448
09A20
FE6DC
01B67
F315E
005F3
F6CE4
078EF
FA9A7
02B07
07473
FE7C9
F46EB
F12A9
00925
FED0F
090A0
176E0
018EE
F126A
FC2EE
07AAF
0C9A2
F3259
F853E
F9AA8
06D11
FD9E8
F94AF
FFBB7
1EA09
00C0E
10493
1956F
FA26A
EF805
0599E
F444B
FC75F
04333
F74A4
FDA7E
09AA7
FF637
0289E
F4865
EEC88
FC5F0
0AD11
01FF8
F9F73
F3CFD
FAAF2
F8369
01BD4
F4F77
0240D
08C17
12B28
02A1A
0162B
067CC
EF849
FC157
F6CA0
FF41E
FF486
025CF
FE82F
FDC83
09E12
FFA06
03EBA
F3DD8
E4B9B
1A7AC
F19C3
01A06
09FF7
FB8AA
F8AD0
FCA45
FA0AB
0D363
0AF77
048C5
F98A3
097AE
0D92A
FF8FB
069DB
FE641
FC4A1
EE4A3
01A07
FC3BB
02B9F
2231B
06F18
F3A87
0D5A1
04382
03913
F41A1
05C37
FC750
F5A5C
F666F
ED19D
F3EAA
24A50
02817
18C37
07875
04A0B
ED660
0748B
0F125
F568C
03DBC
F5376
FB025
03741
0A4A1
F3A82
F4FDC
007A8
FBBF5
F967D
095B7
05AD6
F3EF3
FE527
04EF6
F19F7
EE35D
143FC
FC100
02800
09560
F549C
07334
0264A
0B3C1
F67AC
0BFE1
09CEF
FE15F
FD25F
F8C33
0B0E2
FB1D6
0B6CA
FFAC8
EB610
1206B
F8EDB
F68BE
FD57D
FDACD
04B79
0466A
09E24
0A70F
F8800
EFE87
F4B82
FC73B
0F4E7
0B966
0AB2A
FCC78
03252
FA921
061FA
FB76D
F47B2
18E61
0A0BC
FD745
066B9
0A896
FB1E9
04467
F8A78
F8B8A
0A2C4
F5AB9
FABC6
05F5E
20A42
008F4
17F1D
11750
0510A
01317
043E9
FF411
0AC83
005EB
038AE
08EAC
03E5B
0AC8A
05826
FA74C
FA1D1
FCBA6
FB3F8
F564F
026EA
00912
07CA0
013E2
05A2C
FC1AE
09607
022C6
FA5BC
F5EF1
061DA
036D2
EF7D4
121FE
0B395
05B27
01ED5
01D92
01A04
08660
18B39
048D6
0E1CA
F878A
E1EB3
100F5
05F7D
F92F4
05BDC
0BCC6
FE85F
F8063
06AEC
04CB0
0B521
F9391
F5CDF
08F50
00A10
09634
0059D
F346F
01C9E
EFBA6
0CAC3
F72EE
FB491
1015E
0D005
EABD5
00954
FCA81
034AE
FC013
FAA6B
02CA1
F3746
0AF6A
EF197
0928A
11C13
F965E
149CD
08BF8
07E14
ED2CE
F5A51
098F8
07B37
0B037
0610E
FE11C
03346
00C92
0249E
F58C6
F7BCF
0A05A
F594F
0346C
08BFA
F7A52
F7A56
FCC6A
01874
F6DF0
1385C
04F44
06EE0
03F34
F90BF
00804
FD917
02E6F
0B3D2
F5292
F6E2B
076C4
06B72
F84C7
06B93
F3935
0A9B0
FCB86
EE17D
0B3F5
FC037
F8AD2
004C7
05212
FFD83
F8F81
F8C18
F7561
F6288
01C77
FAB74
03C4A
02BDB
05ED3
07B92
ECB86
0879C
F9C1D
14A82
F81FE
F4AA1
1E4B3
032C7
F1D82
05298
08241
FE876
FEB6A
0B291
EE6AD
00468
F3983
EAF8D
032C4
129DB
F4715
15D40
189DF
0B318
F7B3A
0B5E5
F996A
F8C86
F78A0
02F2D
F4EF4
061F4
F91CF
09D39
02284
EC6CB
FDEBD
01F50
03523
F914F
F8036
FA45E
F92E2
F1772
FD0E9
1200B
FBC4F
06F45
FC410
026B6
081F3
F207E
07D88
07074
FEA80
0805C
FAEEE
FC2D2
F82FB
1A1FC
FBC3E
170FF
00614
ECC32
0E566
F5006
F7C21
0260A
121F7
FAB80
FD5B0
021BC
0ED3C
0456B
F6A6D
FDF60
F802C
06106
07789
F60E5
FEDCC
04E13
FEF24
09794
06187
FC51F
13C72
F634F
FB4F9
FA311
05D7B
0A29D
081E1
FACEE
04449
F8F80
F3424
FF43D
F9B84
1D99C
F41FC
15D59
17C6D
FF2CA
ED46E
07BE0
00AE4
0446A
FD205
FDBA4
0AF01
F4AED
05A88
FB6CC
FBCEE
FDDF3
03026
F500A
FF19C
F8B43
0997A
06CA4
026F4
F0C4C
F3CDD
0B488
0A894
10B2E
FD5D9
FBBAA
FE72C
001B0
1321C
F388C
FED30
F8C41
070DC
074B9
0B1D4
113FA
FDA88
1525F
F676B
ECBFE
1AAE6
0B895
05BF0
015E6
126FA
FDDF6
04694
F75DE
139A9
FEE8E
F72BC
0086A
0E724
073F6
00550
F6EEE
F6E17
F6346
0646D
0FF3B
0AD8C
F8489
09145
FDF14
E9A33
F7F5C
0E112
FAF95
031B1
FD2A2
0579D
F6092
FF60D
ED7B7
03097
0F4F5
0A2C0
0A725
0CB3D
13320
F7F4F
F7F5F
FFC4D
0210E
0749B
FB211
04551
08DAE
F4BFF
087D7
010D6
FAAE6
0AFB7
F55F1
FC94B
0B3A8
FD41D
FEDB7
F9BEC
DB7FA
06134
FD117
09790
107E9
F9A42
05DAD
04CBC
FE7B7
0AFCB
F589F
F6493
F8E6E
FEBE0
09EC4
0B0FB
094EA
F4FE7
02F92
FBBCD
F228C
173E0
05691
06402
FED1C
0BA14
04FCB
F5866
F32A2
FA4AC
F662C
F6DC8
FCCF6
F6044
0AA89
F3005
03C2D
EFC9B
FE94A
FE22F
0525D
F4B3C
0AB2A
11C54
F9B35
F63DB
FEF2A
0AC63
0DB3B
0B1FC
09A75
FB145
F884D
02D3F
EC8EB
F51AE
0F222
F94B2
116B5
04F4A
FE319
04133
09C5C
FE839
02C62
FDB61
01246
FE71F
02833
F61DC
F9C19
06457
F0C60
F5A53
FC526
04703
097D5
0585A
F6B36
FC3A4
EA839
0174D
12622
031FC
13DCC
0A58B
0AEB1
FEC0E
02B81
1355E
FE4E1
EF325
F5E83
F4750
FB756
FBA4F
09FFF
03F16
02808
FD6BE
E2542
13B15
F3363
FFE37
FE409
F4446
0B11D
04E15
F0074
00556
08FAB
F7AEE
F5F15
FC345
FD8CB
0088F
FBF37
04D7F
FB340
FEE4F
107DB
0030C
0AC67
0E1D3
08E53
FDB3E
FCCB8
0A4B3
04448
FD774
F9747
EC3E8
05A1A
F9EAE
EC53C
0436D
2728A
FD762
13F6B
0907D
0489B
F7394
FCB50
FCFF0
FC1E6
0BABD
F916A
08F83
F3AD4
F99E9
07290
F7815
00F77
09E10
FFDCF
095F8
03607
00EBB
003CC
02841
E5C1D
EE66B
15457
0934D
0194A
FF625
F9BA1
F818D
FDB19
10B18
F3D7C
F4022
F5E79
07E42
F7442
05DB3
150A6
F9D95
0D78C
F3A34
F7AC5
114D0
F8355
F5680
F9107
00766
F79C4
04ED1
FE5F6
0777E
F9F27
FBCAA
FC6B5
01E21
0C9BD
F9DC8
F7DBD
FCDAA
FA6B7
EDB39
0B2A5
F4E2F
F5EF5
1C0CD
00B2A
06F2C
0691A
0E191
09917
F3235
0510D
ED3E9
FE099
F7B74
ECF6B
F66C5
16A1B
F652E
06FB4
0FD4A
FABC3
0B2E1
08026
FBA1F
F4995
00313
FE86B
FA2B7
F30CE
F9F26
024CE
F6F76
F1834
0457E
00AA0
FA23A
FF7B5
FFA3A
F45DC
F86E1
D2029
EEE69
100C0
08ED8
0C835
FEF5F
FA055
00696
F8639
0718F
0102E
EC5F3
070F8
FF305
02DA9
056B4
06EED
F83CC
0EA58
FE548
F17E9
18C01
F9D3F
F57D8
F1B55
F3072
FCF06
F5B82
EE822
FFA86
006D6
0CD06
06135
11695
0F13F
F1E9F
FE4D8
03229
01124
FB245
185CB
08F20
FF945
119DF
05C38
F42CA
0CB4C
1B81E
06020
09E13
0A24A
E8B9B
F4439
03D81
FECA3
F6F99
2C3C3
FCFE3
18C46
0C15C
F68B8
03EE2
FD6FD
028B5
F4E6A
04FD7
FE589
FC59E
FD6E9
0B45D
06B23
F8392
E3317
089B1
01278
F9FC7
04761
08010
04B71
00FB8
D3129
FE1A9
0749A
03400
FCBDD
01BC0
F5211
014D5
F91D4
0BD0B
FC564
FA226
09FDA
F9DDF
F7A80
F5136
0DDE2
F4372
05016
FA694
FA1F0
19647
03B30
FB292
FD17C
E6F8D
FFD46
04CFE
DCB0A
FDF11
04319
096F9
F5B67
07607
09DCD
F3124
FF63F
07A87
F876A
ED28C
1FB23
00E1B
F3A8F
0554A
07784
0510D
15E3F
0D3B9
FCC3F
0B58E
F55CF
DB288
FBBAC
F8409
FAE8D
FC628
1324A
F594F
12B95
F1625
EE065
01C7A
0089A
01ACB
FB7D7
F7D59
F9B62
07CC9
F7241
01859
039AE
03AA5
F19C4
03783
05DA5
0265A
FE430
044B6
FE254
F63BA
D9412
F8B9F
15C68
F5C32
0CB43
047F0
F9710
FD27A
F918A
FD3FD
0B2E4
F6A55
07635
FB6E2
08613
F9FF4
020D4
0906A
0DB3F
0939E
FDB90
2819E
F4CFF
E7E49
E8D0B
EB8E9
090B0
FC3D3
ED1A3
FD5B1
01338
109FA
00A6B
16803
F876D
F0624
F6A11
F9835
FC89E
F9C9A
1AE3C
F6662
FE4DC
02A8C
1A63A
07F4A
10800
16B37
EC201
FAE93
F7E02
EB27F
F782F
079E1
0369C
FEFDE
150B2
FEFD9
FE1BD
F3D22
F4BC3
15803
F813E
F4543
0A63A
F3EB3
06CFF
F4D61
04185
F44C3
06027
007D6
EA91D
01876
FB404
09662
0641A
09756
FE6AD
06771
E474D
FC200
0233F
09AA1
0FC8D
FF057
0ADBC
036B9
F8C3C
FA67E
02B50
EF92F
F5710
EE755
0B2CA
FED16
F07E0
FE4C0
FE0DE
F77EE
0745D
2B587
0295F
EE030
DDD6F
DF7F1
F7704
0B233
EE79B
03106
F5352
1A4B2
0B0A4
1AFD4
01418
EE436
F8B3F
0A852
FC254
0E754
28DB9
01C3B
07030
F7059
1A874
2623C
FFDFD
24148
EA8AD
06068
06CE8
D6993
F795C
F46E6
13131
FC09E
14B4C
09030
05DCD
E2979
EBA53
0A201
0523A
F92BF
0051B
091E0
00FD2
08F1E
F86DF
00EE2
F8576
03D1B
DFE99
FBA86
09656
F999C
FDCD2
F7969
F3A75
F3D02
13CF5
EE8D0
072A8
F4F72
012A1
FF49B
F5BFE
F5E8C
0C6AA
FFA4B
FFB12
FE934
034D6
EB646
02616
08442
F03E7
F4822
FA181
00EC7
109C0
1A6D2
EDA3F
DBFC2
DFC5C
CC665
08F68
F700A
DE4B8
F9A02
0A1C5
22930
FBFBC
25D2C
FC764
EF615
04396
0A7AE
F4CC4
0C954
2E273
F510A
FB287
E4FEE
0E398
2D4B4
16ACB
15258
F7533
F3DC7
F9664
E4955
FD973
09AFF
10401
012E3
FCBAC
FFFEF
049EE
DBC7C
E4BDA
17518
04CAC
00C9D
06053
09E27
FDEEF
0A9CC
F4A69
F61E4
08416
FDE4A
DEEC1
06FE9
FDCAE
076C9
0462E
F7628
FD696
03063
F78C7
FF32F
03395
0780A
F1627
F7876
01E78
036A3
065AF
FDBAA
08CA2
01061
F3FAD
F31B2
F46DD
0B255
EB226
08516
F9C8B
F4258
0EF90
1C8D1
FB1B1
E29B0
E1E15
DC681
F3D5F
09781
D3803
008EC
08AB7
24AEC
01144
23363
FA609
F99AC
F6F35
10B34
FBD91
0B92A
221C0
0B958
FB7E5
E8120
0FF76
2ABA2
11C09
1E598
F01EF
F902E
03B0B
E16AB
F9048
057F6
0C5D2
04BF4
04E2E
F96DC
FFB02
E5EE0
E2EB7
29B0A
FBC4B
073DF
F5B31
F9911
F8E61
F3380
09941
F4526
F7D3C
F7C03
E5459
F6631
F5CDC
0A8DE
03951
F3C27
02FF1
F9876
E77EC
05E62
095E4
0AEC8
F421B
006E7
FBC69
03D82
FFDFF
F985B
F8615
15B05
F9EAA
0241A
09844
F8D2F
E8128
01DC9
F4A23
F47AE
FFCC8
FD044
F588F
E0CB1
FED76
EA631
0905D
053DD
E2D3D
03CD3
F4F8C
120DE
07897
0C9E6
096FD
FD0BE
02465
1253A
FFA14
0C91E
1C0FC
03714
F31D6
FA74E
11A15
19DD3
06EE1
13C38
EB685
FAEDB
FBD5D
EA9EF
00165
FB667
FA783
0A18C
F9B42
095D0
0B597
EFA1D
EE372
1762E
F895A
FBF53
FCAE2
FE75F
F420B
FB71E
0241C
FCDB2
FF16C
FFF5E
EC347
06113
00F09
F9B17
02F7F
FFBBF
097A8
04F8E
FB635
08590
07070
01C9E
F48A4
046DB
FED8B
FB695
F5612
0C572
05E0E
29F74
0AFE6
03CC8
F64A5
FB62A
F8901
FB636
EB889
02A41
131A8
D5DE7
04FCA
EA3BA
0C8D5
FD2DC
05AD9
00047
F6BBC
0BD77
F4A97
FE888
F8756
F68F1
EF8A7
E82A0
014CD
1FBAF
03435
04200
1356E
FC557
08DAF
E475A
01D49
00F2C
1C8CA
0721E
E186F
02169
07782
01E08
F8D34
00810
FB398
0323B
E55A5
FCF45
06F31
EE8F9
0F3F7
20D0B
FA4A7
00C54
FF1D7
F4C64
06BEC
02F42
F8863
0932B
FE7AC
F9B33
0137F
0A16A
0636E
021F9
FA793
F8720
FF1C9
03E90
F028A
18794
E4707
F4224
04266
F6E62
09DCE
FA0D9
03158
07D06
FA05E
3B0C4
02FD9
1F3FB
08F4C
FC853
F4EF9
F6448
E27FD
FAF81
FF186
D577C
0AB62
F1273
12BA6
F820F
0B9FA
069E7
FACED
12DFF
FB843
E8123
0A0CC
02B3D
079B1
00EA6
063BC
17335
FF1FC
F3684
05DDD
076FA
F5B26
F08A1
FB46C
F9310
1C867
06F74
DAB2C
FDB87
F9357
01C67
02A1F
082D0
F29F5
F7857
EB043
F5AA9
02D17
FA9B3
0E40B
0BA95
FC938
013AC
F983B
006B5
02373
F6443
FC36D
0B042
0B0B8
0941B
0758E
01C3F
F93DF
F47FD
023B7
FF6D0
00499
07422
F7C37
22E66
F000C
F90BC
FDBE1
05BA6
03D8E
F4EBE
E7D10
22FBE
FD9FD
39530
F6DAC
26DE3
FBEE9
072C2
0E408
00088
D9C52
F983E
FB5B6
F5A15
FA9D9
E91B2
06282
F8939
001AA
FF617
FDB05
FF410
0AA27
F7DE8
02545
FE17B
09047
FA684
F866F
1B436
00F98
F626C
0C5CD
F64CE
FB4F9
F65EC
00CF0
15390
17602
126C2
D8F7D
09AF0
02CD9
FEAB3
F6A70
F3B31
E7F41
051A4
FA1D6
FBA83
FA8B5
F402A
05F05
1A269
0010A
EBA1D
0B679
FECC8
FBCA2
FA5ED
06E63
06B55
F5C7A
0432B
F16D6
059C0
FE399
FBD06
FED8F
038A1
0423A
F7EF1
02A47
18881
FC87F
033DE
FD92D
FFF4A
FB8F2
065B3
F3759
0AF4E
0A35B
0C241
F6437
1566A
0B955
04810
09191
F94B5
DDCB3
03F03
0055F
F7A1E
F3DCD
F4EF6
0739D
F6D88
03BAE
FFA75
EB889
FEAD0
F7798
ECDB4
01281
F1A5D
05BD6
FF281
00B18
073E5
F3946
E2E20
069CE
00686
FA30A
F4BD2
090D0
09930
0EAEB
F8406
F020E
03BD2
F967C
07165
F3B21
F4B2E
E8A53
0846F
042FD
F4C18
0AAAB
FD97B
F7F3B
0D832
047E5
FF328
F617A
006A5
050F0
043D6
F5DE6
F995A
FE383
F478D
FCE4C
04E24
F51F8
FC59C
F6089
FC83B
033F9
FEDD6
FF831
08443
10879
F744F
0742A
FB41B
FEB49
FF354
E9DB0
16D4E
F3C79
18632
0A2B4
180FA
FC3B4
03588
1482D
09CEB
F86F7
0418D
10BB9
13C58
FDA76
F48F6
01569
ECE29
FD013
043A0
06083
FDE97
09575
18531
0BFFE
FB7D9
16768
09810
FC0A8
FA7ED
F4B62
F4E3A
00877
F7ACB
0A8F2
00688
185A8
1DAD9
06373
0ACC6
EE932
03C33
039B0
F2E80
09D3E
FD6FB
FD514
FC0DF
FD88E
FA5A4
0205C
E5B2C
E6196
0BA15
F4DB7
0F0A8
00516
FB021
0A0A9
FE4A6
FB6C8
FBCA6
05B4B
099C3
06CB8
FE5C2
026E7
050E1
05765
F6DF0
F9A25
07F3B
02579
02789
04E79
FB658
F6C4B
07B36
06598
FEFFF
F2A7C
05873
FA0C4
FEFE1
0AE5F
0038D
FC901
021DA
E4DC0
F72D6
FCBE9
FC662
0B84E
14F1A
EB79A
E7843
FA595
D493B
F890B
FED5F
F2F2E
F6510
FD29D
2580F
FE0CC
029D5
1AF59
04F87
FB1A5
FFC0C
0462D
08D9C
1115D
F6DB6
F3115
F1E0C
2C187
1CE7B
110F5
0D46E
EB64E
03CE9
FBAA7
ED7DB
0A652
F33E1
0DB27
01AAC
FA635
067DC
1AF08
DFCDA
ED7C0
103BF
01042
1907B
08C49
002F5
F6153
FCDDF
F424E
F522D
F9F27
09C35
F7C3C
040B5
04F43
0906F
F8993
0BE0B
073BB
079EA
FE058
0590F
09819
FEB8E
E3A0A
FDC4A
F629F
01E12
07A4C
09DFF
06BD5
04543
08DAE
FD9A8
FEDEA
05927
E270E
02E62
F8E2F
FCF1E
FF39E
1911E
F05E5
E2EBB
FB297
D9FDF
0B301
0AAD8
EC927
EEB9F
FCC1C
1302F
FED48
0FA9D
05C5E
022F6
F93B9
02B08
01C8D
FB2D1
0ED31
FAC40
07217
E97E6
22B2B
22673
11311
1BA9D
F3CAD
07F23
08C8A
EF449
0776F
01C69
12101
086BD
FB4EF
0B201
192FF
DDCC6
EDD2B
16F8E
F863E
16A53
FB8AA
FD362
FE075
FBB5A
082EB
022A5
F3520
FB48A
F3EE2
F6396
06ABD
F7A45
09F6D
01DD4
07C3E
FDD30
FCDC2
02158
FBB8A
060BE
EB5C7
0626B
FCB2C
FE501
0365B
FC688
F7106
122CA
FA296
F8D0E
FA564
FEA4F
DC263
F8D41
FE546
F5F6D
0ECD2
16CF9
F91E0
FFC58
EEB01
D41B9
F8BA0
0AA3D
ECDD9
E524B
FD4AD
20C3E
F64BF
15CCF
1A6CD
05E6B
F68BD
07B05
0A64B
099E5
08B13
09708
F35EF
FB532
1B51B
1A5A0
F76A6
FF150
FA6A0
FFEC9
F96E3
F34C2
FDCA8
0216D
0C6BD
F5CC8
F72FF
07FBE
05DE2
EBAE4
E4D03
16801
FE414
1B4D2
F841D
F56B1
058D0
F3922
01554
FF970
F6B09
FC370
F5F2B
F4152
FABB7
F9665
F3D8A
FE121
F67D4
FF13F
F5D6D
0164C
076C9
FC10D
EBFFC
F9B29
F4399
F5F7E
FB18F
E9F39
FDAF7
FA51C
0180D
F2D2B
04D42
FE6F0
DF71D
F91F9
F700C
0453F
16AA4
1B562
F9337
FC97B
E31E5
DA80F
0A355
0B66F
ECABE
FB801
F79C5
26D90
FC8A3
1D2D6
06D98
FD38F
00A63
F6F24
F5323
022C3
17C36
F61ED
FDF94
0050A
1B3BF
1B313
064F1
07D18
01E8F
F919D
FFF54
EA049
02B22
0A6F5
1B526
09697
015D1
06627
FF64B
F0027
EB817
0770A
0B55A
08F27
F7A11
0BBB0
02B49
06840
FA849
F5FCA
FEB75
F4EA3
FBFAD
FE0D2
F6A87
099F0
F8977
06269
F6AB8
05FB4
F8F47
00A1F
0ACD2
F7A3C
F88F5
F6197
086A0
034C5
FFDAB
ED4F2
04EFC
FD068
FEC64
EC294
FC471
031FC
E87AF
07942
FE57D
FC3C3
040B8
1F77D
F9165
01974
FA4EF
EFB5C
03135
F9CCB
F70D6
084F7
F34A9
1670D
01A2A
11938
0C715
FD7D8
09F3E
FA417
0735F
00CEF
03F46
FB3C2
F653A
F19CD
0BAB8
0C1A8
F6C08
0DCCC
0555C
FA66E
09CAF
FBE9A
08144
063D6
02E0F
05533
FC8A5
086BC
01AC8
F674F
EF360
0FD2E
09FF9
F1973
04A97
0A90C
FBC5B
042C4
050FC
F44FC
F5361
00CB4
F31D8
000BF
08A93
FB3AA
02738
03A83
F49AA
F8689
0078C
F7E35
F94A9
FF77C
F30F7
F9D52
0238B
F7DEB
0764D
FCD63
02722
FB42E
08AC8
03F54
F7B69
F381B
E9037
0A124
07CD2
0B786
099ED
11A06
08CFF
F77B9
FC3E0
00111
0137B
0ACA3
F0B85
0CA7E
F3799
14DFE
0A66C
18BC4
0168D
012FE
FA692
0BC71
076CF
0915F
155F3
F4817
0363C
06772
FCB77
0336A
08F93
0CF94
FDE8E
0470D
F6449
EDCFA
0A3CB
F8926
0B2DB
FF08D
FE896
0426F
F8E4D
F5C9E
078FB
0C10E
0A15A
00BD1
0C1B0
F5359
0570C
051F3
05C10
065ED
FF8B2
F3A8F
058E1
FE57D
0287B
F9ED2
FB80D
051B6
F9D9E
02293
0225C
FE56E
FEFF4
029FF
09BD3
03501
FB533
02A9C
078B1
F6278
FB9A3
F73F5
0247B
04B3D
FD44D
FC68E
FD139
F3083
0164B
02F22
07932
18E08
0A12E
F40C9
F8896
08E8F
04C8E
FAE91
FA93D
01E9C
FC4DB
FCBDB
0095B
0D453
FA899
05663
F4AFD
07C98
F66EE
02CBA
FBA2C
068D6
F64C2
08A0C
0C3DF
00898
F5E61
03D7F
0D4CF
01C0E
0284D
FF726
04355
FC74E
05D86
06AD9
0502D
FE72C
F87D2
F5D71
FE231
F6E0F
F350B
F8DB5
F66C9
00EAB
FE10C
FD6A2
03111
FA9C1
FA351
F99FF
F9B09
FBBA6
07811
FBA51
05916
F9255
F40FB
055EB
F6AD3
FA2AE
14552
F42D4
0127C
FB09F
020C8
02A6B
F8490
09D13
FF3AF
0B0B3
FD3DD
FBE22
06E52
FB927
F91A4
FCEC7
F8853
F355B
EFFBA
1382A
0199B
055B1
01FD3
01CC8
0A0D5
FB47E
01987
0DD1D
F6203
F476B
0937F
03952
F649D
FE3A3
030D6
F8DE8
F6800
F0DBE
FC020
08646
F3EF7
13799
F9BDB
026CD
0D28E
0376B
0C701
FD6BF
04505
07983
FEA81
FE241
03BB7
089FD
19F71
FC7ED
06640
FBF89
06671
FA542
051C2
F72FE
FE9FE
FC9C2
094E2
05055
F57C3
01C70
07DD8
F41D4
FA247
F7282
F8351
F3F7B
F840E
08781
FC6AB
0C283
FCAAC
F30BD
0866B
F6D8A
FF770
0A647
F89B0
04EBA
FC6CF
09CCA
018E0
F4DCC
FF4BE
05441
FF3BC
F8159
04285
F8C52
FCE3F
090C3
FD25A
171BF
F7723
02F88
0B7B9
0B158
FFD0F
FECF9
08964
03D58
FDAE5
081FD
FEADA
01D9C
00EBB
F6E8A
0A430
00069
09760
F0C83
0F674
0A770
FE85C
1447E
009F4
00659
FED0C
121BC
0AC1C
FCF15
FC773
05B79
0391E
F8F76
01A32
0213B
1334D
FAAB9
FB970
01B1E
0B2F7
F8A60
FC23D
071EB
01929
F46CB
02BFE
06B5B
02939
0BA8B
F824A
F7D9C
F82E8
08FB7
FAB48
FB3EC
06CF6
F9A20
05EF7
FF89A
0B89C
05C62
168EC
FEA37
0E5E6
00B1F
FF1B7
06FA4
F3425
F7C1B
F7652
F9CC6
0132B
FFF5D
F86CD
FF154
0AF0D
03983
05855
F640F
EE44E
1708C
01044
FFF38
0D8DC
127A2
08447
F4E55
029D6
13118
F927D
F7477
FEE17
FA7E2
0285B
04739
F9FD0
FBF60
0817D
F1D1E
01322
F62B8
F838F
1513E
FB810
F44C0
FA871
0BC67
F721F
FD1CF
FC007
FACDD
FC3AA
FA761
FDE58
F91D5
1AFBC
028DA
01D51
09638
12E3E
FA37B
FD8B6
FB735
F5899
FDBE6
FB37A
053E6
F7393
F5FDB
0B67E
0730E
F6DD8
04B60
048C0
F96BA
062F7
F424A
07400
06FE9
00300
0B9E5
16069
F42C9
0D94B
F5649
07CC1
F7ACA
F39CA
11CC3
F3506
010D3
FF217
01C8E
095E3
FAC89
124A5
FC620
0E44D
FA318
FDF73
0437C
081C1
003F5
F93CF
09FAF
FDA8E
0A985
F7851
04B55
FB76D
EF8B4
F48F6
0849E
FFA64
F1AD9
F8660
F4E0A
FA37D
F3314
03BEC
04AA9
FDCA0
037C5
F96BE
F6576
0173F
0A407
04941
FFC8F
01E73
017D7
F8D78
086E7
EE80B
08383
0EA99
00237
12574
0883E
0DB1F
04A42
00C84
F33E5
F9AF9
FB07E
FD94D
F3EBB
055E5
044AD
F7A41
08242
00C15
F5034
F59B8
FA5BD
03F4C
F5883
FB908
03B1B
0DB1C
FCC07
15559
FCC1E
FEE7C
025B2
FE013
00429
FB724
0D0DF
0155D
FC7C9
0814E
F9426
FC78D
FBF32
138DC
F5C6D
033C5
FC4EF
ECB60
11C7E
FDFD1
FBB7C
00A02
00E26
006AB
064BF
F65DA
059F5
00C98
00321
FEA47
0B43D
0BBE1
F13CD
F8D02
0363D
06D8F
EF2B8
00BC4
03A9F
004DF
118E6
FD8A6
F9EAD
0AD0D
01E4B
F9FC8
F369B
F7FAD
EF3FB
FDB34
FBC17
02E4E
F9400
1997C
07433
10E19
169DE
08456
EFB24
FBECB
03448
08CA1
095E3
03372
F52AA
FB408
0550E
0B514
0A6E2
FFC08
F681D
09C09
FACC0
FA85A
F66B0
F5FD8
092D4
FDCB2
FEB1F
0B4C9
FF5C5
0D842
F6AA1
F7552
FB88B
F563A
123C4
03E2D
098A4
FE73B
F9942
06A3F
F9620
15561
F900C
0232D
F406E
EBD33
09541
F3B19
F1A60
0089B
11593
09992
FD84F
F6D2E
0E640
05254
F44D7
028D7
077B1
F6886
FB170
00EE2
0057A
09062
F758F
FCFF1
FEE25
0A0DA
20BE3
002EB
FCB39
04CEF
0AA5D
FCC54
F70ED
0AC07
F0A88
F7650
F6FAF
ED211
FF0A0
14A42
FC681
0C7CE
18244
0049A
FCDFD
0A52B
F7ABF
FF1B6
0B171
0B5AB
0617A
F9461
FAB2F
FE5D0
06577
F8370
030F8
FC329
FF66F
031C8
F9EC4
F5688
080A6
FB06F
02564
0F57E
F7551
016FF
F70F1
01703
02EE5
0153A
FE2F0
04BE8
016B1
01547
F942D
F7521
02FD9
07545
FBE42
0131B
07B3A
E5E13
15F64
FC1A5
F5FD0
07FD2
FBC06
FE92A
0346A
FEB62
0D42F
F6651
F75C1
0A084
0723C
085BD
FC85E
F73AB
01444
0A60F
FF405
12676
09276
F6CE2
19631
02758
