1DE6FC
1E7DB7
01A158
1EECF1
01C74F
1D0DB3
1A6EB4
1FAFF9
018719
0272EF
026B91
1FC467
1D486A
059A1C
1AC777
031EBE
1C3D2D
040227
1C02D3
016E52
03CB4B
01147A
18B727
1DC6F8
0534F9
1D105F
0461DF
00E125
199A3F
0103C7
04A6D1
0241E2
014352
1B8589
036CC2
1DF233
019ABB
1E35BC
1F1C7D
1E74E1
1EFC4D
000FD5
1FDF15
1ECA89
00776B
1D8AE0
03263A
1BB25D
1C9F2C
044AAE
04C4D2
1ADE9A
04BD92
1BC975
1DBB2D
0075E3
00F4C7
0065E2
00902F
003292
1D7A36
1B976F
1B5C10
063168
1F6F6F
1E3900
1F1472
1E482D
000D80
011A55
027CEF
1A1355
01F1BE
04D0F2
1BD6E9
1B7DC4
02E49B
1D5215
019788
1E0C40
1AA085
062832
19B799
019E49
0168F1
1E0198
00C183
0019DF
1E5F45
1FB034
1DB63D
19576C
06823E
1FD68E
008713
0044F4
1EB596
1F275A
01150C
1EAC2C
006E09
1B6B5B
1E8E81
01CD5B
033A6C
1E2551
1D1F79
03C07E
0407B8
19A8BD
01859C
010997
1FCC11
1F2C01
1FCC97
1E8DF0
1F34CE
1F1DA9
1EB49C
003EFD
04DEA4
05DB34
1B4B72
1E1793
194709
1A6D55
01B4AD
1EA3CD
04CAD8
1D587D
1A9A76
1D5654
1EA519
047C99
0043CA
1E5958
1F3220
042F1F
1F009B
1B4962
015152
197B16
04A0B4
0435E5
19F644
036B93
03A7C3
17F0D8
1E1527
033771
006E80
1E921A
01A5C9
1E687A
01B2A7
020A11
1E6330
1FFB70
1F1AB2
1F5E35
1DC883
014BD3
1F3ADB
1C6247
0341EE
1EF110
00292D
1E047E
015641
01FE29
008D9B
0046BC
1FF30F
1F0315
008B24
012071
1B1DE3
1AB67D
06C4D1
0544D6
015668
01C3CF
003D27
018983
1FDAA0
04B9CE
024D82
00D99D
01A3B6
1A7B75
01B2AF
1EC61E
000365
1E08D5
0038ED
1C0708
05753A
1E4F6E
032D61
197C50
0583D4
03C4DB
1F46C3
192E27
1F94FF
042484
1B8D3E
02DDB0
18F2EF
0187E0
1AFB9F
1C6708
0409D6
04B007
1F3FF7
1F79AB
01806D
006267
00E066
005D00
18C103
07F5CD
18AFF0
03CD06
1CDF9D
1F4325
1E0A50
1FB780
01E693
1FA162
1F3DAE
0107EE
1FC271
1F74DC
002A8D
1FEBF2
01DD38
019229
1F87F6
1FEF2F
1FA601
1E761C
009DFD
1EC0CC
01F486
1EC87E
1E9115
1F8808
013979
1E9CA4
1F783E
1F15AF
1FC6CB
0181DF
1E1B54
1E4541
1E420B
1F630E
1ED46C
1E5674
1F5778
1E01F6
00238E
1EC148
018032
1C6BA4
1F2442
1C9D7A
1CAC30
0551CF
1FABCA
019158
1F53B3
020552
1E0CD7
1FAC9A
015F17
001647
008DB2
1E34F3
0052EA
1E5890
012FEF
1FAA4F
1E55B4
1FBCC5
011F59
1FC01D
012CDF
1F24E2
009ADA
021119
1E595D
0072EA
1E9DCB
1E9C40
00A1ED
00D922
1DF59F
00BAD4
1FD770
00A3D2
01F920
01A61D
1EE9A9
1F18B7
08C6AC
12BC0B
00E46F
1A2790
1C9835
1BE153
049B2F
1CC1A8
00DB5D
1DF3C2
06C4ED
1B3120
04A3E7
1AB7BA
020DA7
018D9D
0038ED
1FF152
1FCFEA
037E7B
1B2B35
024FA3
18D26A
1C0362
00119F
1F78CD
003A50
1E78DB
1EA588
1F3C06
1F4980
00AF2D
0130A8
1F4E60
01B1A6
019476
002B59
013D5D
016AE9
032930
188C19
1DDFBD
02F735
060BE8
1CC4F3
02A6FF
014402
1B3B3E
1A7BA6
1E38A7
1F5D8E
017CBF
1E014F
1E4111
17CB25
0278B0
0833B9
1F549C
18AE72
1E7962
01CAB6
1F8F51
1F02AD
0041B1
1BB03D
00D808
00EF80
1E7C15
007249
0076A8
1E0795
00BEAC
01A887
016926
0214CF
1F3B8E
1EE020
1FB654
1F39F9
04807B
035407
02484A
190D59
1D1CD2
013F4B
1DF758
1FCAE2
1DE76D
00BEAE
0594BF
0789ED
151219
021A0B
1DDFAC

